/**
  ******************************************************************************
  * @file    network_data_params.c
  * @author  AST Embedded Analytics Research Platform
  * @date    Mon Jun  5 23:00:15 2023
  * @brief   AI Tool Automatic Code Generator for Embedded NN computing
  ******************************************************************************
  * Copyright (c) 2023 STMicroelectronics.
  * All rights reserved.
  *
  * This software is licensed under terms that can be found in the LICENSE file
  * in the root directory of this software component.
  * If no LICENSE file comes with this software, it is provided AS-IS.
  ******************************************************************************
  */

#include "network_data_params.h"


/**  Activations Section  ****************************************************/
ai_handle g_network_activations_table[1 + 2] = {
  AI_HANDLE_PTR(AI_MAGIC_MARKER),
  AI_HANDLE_PTR(NULL),
  AI_HANDLE_PTR(AI_MAGIC_MARKER),
};




/**  Weights Section  ********************************************************/
AI_ALIGNED(32)
const ai_u64 s_network_weights_array_u64[19348] = {
  0x3d5ad15ebca5b853U, 0xbe4df2ef3ddab669U, 0xbd11fb2d3e2fa2e4U, 0xbe4e6a14bf3056beU,
  0x3efe6a073e895660U, 0xbf8ba36c3ed1d6e6U, 0xbd56acb73ee0a076U, 0x3d19d598be574c76U,
  0x3ebfde34be390e66U, 0x3e69ef01bdb18da4U, 0x3ed3e059bd5dfa08U, 0x3e65c452bd674558U,
  0x3ec76c10be0a619eU, 0x3e5aed5bbe14054dU, 0x3ee4dbb23cb3668eU, 0x3eaaa9e1bdaae45aU,
  0xbe65699c3e7f867cU, 0xbda403363d01634cU, 0x3e34c0f63eb2bf41U, 0xbe493605bdb0b911U,
  0xbccb864fbdf17416U, 0xbde5d14d3e660351U, 0x3e175d2e3e8cdbf1U, 0x3ba77c3d3e996694U,
  0x3e7d03993d8e09faU, 0x3eaef5b5be9cd02cU, 0x3ee5aec2be93c12dU, 0x3e95121dbe0d8e03U,
  0x3e3709563d9f5987U, 0x3eac5cc9be8d7230U, 0x3e1ada59be365e0cU, 0x3e7307ffbe973010U,
  0x3eaf5064bdc2efb7U, 0xb9df3eb4be6f26bdU, 0xbc3cc7c03ee9c182U, 0xbe924665bd5d30e8U,
  0x3e1973e9beb4ff85U, 0xbeed170abe997cfbU, 0xbeb9afc8befb7f48U, 0xbddec7adbd59ebeaU,
  0x3d6a1ec8be6c5d9aU, 0xbe6157f7beb59a26U, 0x3e1d8281be39ed63U, 0xbd663a84be114590U,
  0x3d0aab0dbe8c1794U, 0xbe300aaa3dc52766U, 0x3df295db3e189850U, 0x3e164903be9a1d7cU,
  0xbe578d3cbe513c4dU, 0x3da8e9cb3d942109U, 0xbe41656b3cd69962U, 0x3e06f18f3d4839dcU,
  0x3f0cde35bd7ac0eeU, 0x3d5c64a33e0c14a6U, 0x3c8b2b42be867735U, 0x3deade4dbea2dc95U,
  0x3e20a002beab4584U, 0xbe6f5739be200b63U, 0xbee70528bebec5d5U, 0xbe8df60ebe4a2660U,
  0xbd51409fbe5ef785U, 0xbe654a88bb7785e0U, 0x3ec03d243e2a92b5U, 0xbdee45ebbe3487ecU,
  0xbe12c3313c0cbbd0U, 0x3e68acb8be4e787cU, 0xbd869b3a3e8a10e4U, 0x3e756a6c3e8fdcb8U,
  0x3e34e83fbeda6dd7U, 0x3da112623de1a1e5U, 0x3d52f767bde6d95fU, 0x3eb95823bdd0fa8aU,
  0x3e7447a53e860e43U, 0xbe8bb868be547361U, 0xbde8a940bd535184U, 0x3de864aabe33e1b1U,
  0xbe5e4602be9922dbU, 0x3e8323623e9e5c8fU, 0x3dee2f0b3e4fb2c9U, 0x3e7e1b4c3d922fb1U,
  0xbe0937533ea23838U, 0xbb43b3963e1f0a1dU, 0xbdb690973e086749U, 0xbeeb7307be5a172eU,
  0x3e572d0cbe413c28U, 0x3d174578bb31affdU, 0xbea1e285bd821c88U, 0x3e864b80be22fe46U,
  0xbdbd88f93eaf96afU, 0x3ef84e253ef7b99aU, 0xbc116dac3ee5febbU, 0x3e3bc8293db91d42U,
  0x3dfdaa12bde9a6caU, 0xbded987abe51a112U, 0x3cf1693ebef9854bU, 0xbe156855beaf9c5aU,
  0x3e1360a1bc8ddf65U, 0x3edbeab1bd90f8acU, 0x3e7bb4c8bd456398U, 0xbe7278163e6253a8U,
  0xbd89284e3ea6d18dU, 0x3db63bdc3eb32a4dU, 0x3c50d2d43ebb19e7U, 0xbe1dd82e3eb95f18U,
  0x3dad81333d659d3bU, 0x3ab80711bee57ce1U, 0x3e5366b53e32b722U, 0xbe35b7233e3906c4U,
  0x3e9a28d13e69a498U, 0xbe0ce08bbe971057U, 0x3ce778a23e42ded7U, 0x3e9efcf4bdadee8aU,
  0x3dd3cc6c3d1d0875U, 0xbdf0e14bbda0a9dcU, 0x3d077a64bec2bc4fU, 0xbe27e9d23e06e9efU,
  0xbd185166be4b77a2U, 0x3eaef2683df8f806U, 0x3eb69af9be0f74c8U, 0x3dc6ef81bc1755bdU,
  0xbe69f8763ea8c344U, 0x3f294a6abd918e58U, 0xbe0bb9713e3dc3ddU, 0xbe2e0b723e345070U,
  0x3d44155b3d4bb87bU, 0xbe86623c3e288d74U, 0x3e625e82bdcf3918U, 0x3ed2dcfd3c6fb6cbU,
  0xbe4f478abd3efa22U, 0xbd712cd03ee610e0U, 0xbd3b9c183e61b6c2U, 0x3f0cfb933ca80393U,
  0xbdda9c923e81eb92U, 0xbe2841573db45688U, 0xbecfcc71bf026bd4U, 0x3d7ce7993dd55f25U,
  0x3e2ce999be864207U, 0x3c93c5c33e0c8449U, 0x3e004ec73e0b06c2U, 0x3da152013f086b05U,
  0x3e81e1be3d9e0106U, 0x3ecc99d03ebc5cbcU, 0x3e945b38be95fcaeU, 0x3cc4e036bc352924U,
  0xbc76d31ebe53d6d5U, 0x3dc47406bd784751U, 0x3e5567debd30677aU, 0x3e37202abdf30005U,
  0x3ce32ed33d53b1e5U, 0x3f0c8c283ecdb06eU, 0xbe39e492be146678U, 0x3e57a9ed3e810456U,
  0xbe96d4ba3e1e74feU, 0xbede577abd48a885U, 0xbed4f63f3dd23743U, 0xbe8bd6efbe03f065U,
  0xbe9a130bbda0a364U, 0x3e8f1ddc3bcc12b4U, 0xbdb746d6be93d227U, 0xbe95151b3e3ac097U,
  0x3d61b720be5a4aa1U, 0x3ead316a3cf8ebfaU, 0x3e9674e93db54f2aU, 0x3b2b728e3da1bc69U,
  0xbe4120f0bed3a343U, 0x3de5aa33bcef9f0fU, 0xbe530c5e3da6f210U, 0x3eb5fb2f3df97137U,
  0xbe28eb6a3e7a6d5fU, 0x3eec078d3eadaca3U, 0x3e8dd02bbcbb31adU, 0x3e3954423df46cb5U,
  0xbb0260463de31a33U, 0x3b07e9883dbfe541U, 0x3be119a8bf0094e9U, 0x3cbf6a313c330e32U,
  0x3e22a1e4be2e9e79U, 0xbdecb069bdb88103U, 0x3ee48d533e61abc3U, 0x3e8a46953e933d4eU,
  0x3ec4b2783e0a5882U, 0x3f031ca53d1867ebU, 0x3eb6f944bdbba642U, 0xbf05d1bbbe22c97aU,
  0xbe7b5191be8d52d5U, 0xbdc317893db66113U, 0x3ddd9df73e54cce1U, 0x3dc614903e999c9bU,
  0x3e6ef501bd325c0aU, 0x3e52d166be22d2e6U, 0x3d3c2a873e4d3772U, 0x3dd955933da40a4fU,
  0xbd19f8ed3d4a257dU, 0xbe885fbbbe4cf111U, 0xbe79206ebecb0685U, 0xbdaab90cbd91e59eU,
  0xbe4890073d17e396U, 0x3d7d9c4bbe694664U, 0xbe8153143e06b4c1U, 0x3e380fb6be11cfdaU,
  0x3e9814783ecf518aU, 0xbe7815133d7c4f25U, 0x3e75f547be5cc569U, 0xbec07cefbe950e0fU,
  0x3e9c9ff9becdbc4cU, 0xbe056d443cfdd226U, 0x3ce83636bddfff77U, 0xbe9379783e991fb8U,
  0xbea02ba83d254f6aU, 0xbe52785d3ec0a374U, 0x3e84347dbe69023eU, 0x3d30e92dbd9d2eb9U,
  0xbdb6d8a0bddb879bU, 0x3a8c20873ee7e4b1U, 0x3d5c5aa13e428cffU, 0x3da6d2ebbe4bc04cU,
  0x3d0516b6bdc4fcd8U, 0xbe65b91e3eaec09cU, 0xbeca2873bef2066aU, 0xbe74a6823db099d5U,
  0xbddaf1b1be8bc340U, 0xbe939d8cbec4dc21U, 0x3e5bef4a3e849c4cU, 0x3e7f85ba3e37d75bU,
  0x3da1dfa43e02668cU, 0x3dcb2928bbc20831U, 0xbe4a7d6c3cf8dc34U, 0xbea4e4fc3e5d853cU,
  0xbed016ecbebbc287U, 0xbe8cff1a3e444c9aU, 0xbddc8df9be4fa612U, 0xbe525407bb17a419U,
  0xbd9256563de5007bU, 0xbeae42e03e4de464U, 0xbe96317bbe267653U, 0xbda22a64be41fd78U,
  0x3e7dc422be60e026U, 0xbc0e0ad9bea827b2U, 0x3e0546acbe7e3830U, 0x3e349af5be3c18d4U,
  0x3e0576483e86664dU, 0x3e700f22bc8dfe59U, 0xbe015998be32908aU, 0xbe380b24be8b3767U,
  0xbe6268313d7b237bU, 0xbe9351c9bdeaef21U, 0x3b2d5289beb34e86U, 0xbd68090bbe9f5ea3U,
  0xbd8a1ebc3c29a735U, 0x3db884a23e92d340U, 0x3d9e8fc0be3f8dcbU, 0x3ddf68723e55a060U,
  0xbce06a5cbe96acf5U, 0xbc5723603de05d7eU, 0xbd46ffcc3e6941cdU, 0x3e522a1d3e811523U,
  0xbe78aae1be134e31U, 0x3e7f0e283db17851U, 0xbe7d18d83e03e5f3U, 0x3dfee50ebe639867U,
  0x3b3437bdbe9d8c5aU, 0x3ea734f43e9a2a5aU, 0xbe89950dbe3427c0U, 0x3ea571df3e6899faU,
  0x3e5cd235be39c4ffU, 0x3e5a60d43e61bffcU, 0xbdf60a7f3e4b4f1fU, 0x3e841a06bd96558dU,
  0x3e7bc865be803e64U, 0xbe9ce7ba3e831d6fU, 0x3d68001bbe2e45d7U, 0x3df7301cbe5b5e65U,
  0x3d8f55e23e8350efU, 0xbe9a3f533e928618U, 0x3e24b8fabe279c9aU, 0x3e9f1e743e552b0cU,
  0xbe5381433e233badU, 0xbe2b0a153d91b2c0U, 0xbe96b01bbe9d9c38U, 0x3cbfd30bbe9c62f7U,
  0x3e031c593e2825ccU, 0xbd1a4b8a3e862b43U, 0x3de5031bbdefb96dU, 0x3c2e33c83c4ed194U,
  0xbe4fba98bd90379aU, 0x3e2fcf7b3de54cdfU, 0xbe93b5713e8ee8faU, 0xbd9fdb6d3e8a1482U,
  0xbded1e77bdb5d204U, 0x3e7a1f8dbe5e7b3eU, 0xbe054437bdefe94aU, 0xbe34b5c43e1f175dU,
  0x3e5d2dbdbd82bc7fU, 0x3eaffb9a3bed06a7U, 0xbd1768af3e5dd032U, 0x3d3f2b5bbe1197c1U,
  0x3e5a5a74beae60e1U, 0xbe6ef9513e870c57U, 0xbdf6dcaf3def1db7U, 0xbe21e01e3e509766U,
  0xbdcdaf6d3db640daU, 0x3e8135053e34de3bU, 0xbe03cf393e6a4642U, 0xbdcb10edbce0a5e6U,
  0x3e478b2e3e214d37U, 0x3d833db73db04698U, 0x3e871365be33ffa9U, 0x3e0015c7bc4942bfU,
  0x3e4ce92abe1cb0ceU, 0xbea44f30be914dfaU, 0xbe529a763e85c4ecU, 0x3c673bac3e93c1f7U,
  0x3d16f36a3e8463fdU, 0xbe9446c2be933d62U, 0x3e302e58be92467aU, 0xbeb7f9dcbe47d0eaU,
  0xbe39c5c53d8d4caaU, 0xbd601a06bdb755a8U, 0x3dec615bbd056c06U, 0x3db7598d3e6f619aU,
  0xbe9a5ab83e0de7fdU, 0xbeaeddda3e5a3b2dU, 0x3e9aee57be97fbb8U, 0x3e9d76b7be944266U,
  0x3b91706fbe3d309bU, 0x3c7640773d4e7923U, 0x3e8f7b2abca48e0cU, 0x3bf441233dac1946U,
  0x3c446b553e9bfe92U, 0xbe46c107beab1602U, 0xbeade308bd7d298bU, 0xbe9ac5edbe6a6505U,
  0xbda5a1193d073854U, 0xbd9b0d573e3d2885U, 0x3e03643bbe581eafU, 0xbe9b580f3d71a05fU,
  0x3da615bd3dc150a1U, 0xbe8559ddbd9c05beU, 0x3e140fcabd0cc172U, 0x3e41e1363dc55ce6U,
  0xbe5c34c13e507ff3U, 0xbe318bcabe0246beU, 0x3d5ac4dcbe950098U, 0xbde71fb23e58f5b8U,
  0xb972e3cbbe9e60e8U, 0xbea8d58a3dd47ef4U, 0x3dccb870bd2695acU, 0xbe94d7d83e4793d7U,
  0xbc16509b3e96c6beU, 0xbe3eb6a13df73f44U, 0x3e4edbb3bdb590fdU, 0x3e3265c13d7e6814U,
  0x3dfaa427bdd2f103U, 0xbda9ad1cbcc8a54bU, 0x3dd3f4113d41c794U, 0x3e85e8ff3dae0f59U,
  0xbe7aae833deb073fU, 0xbe7fe5e5be9618d8U, 0xbe88b07ebe5ff346U, 0xbe5ba6d3beb18354U,
  0xbec86173bdd4b799U, 0x3d306597bb1f19f9U, 0xbe8e2e633d12fa11U, 0x3d7d34aebe85e37fU,
  0xbe9a19b6be9eb8e1U, 0x3d0ac58d3e15f7daU, 0xbbe624623e1c62f1U, 0xbe08b5e03d8a587dU,
  0x3e8fe21abe9657dfU, 0x3e7a5e89beaf8bdaU, 0xbe0f73e23e86b553U, 0x3d38cd01be9446a3U,
  0xbe96b1623e9ae603U, 0xbea855e63e85956cU, 0x3d94d0cebd8c43cdU, 0xbe1d38cfbe2bfa6dU,
  0xbe5e0f3ebd41c836U, 0xbe736f6cbd3c89caU, 0x3ea33d49bea04067U, 0xbd7feff5bdf10494U,
  0xbd91cfebbea46695U, 0xbe8c5af9bd747d77U, 0x3e0ba7783e679ef2U, 0xbe66d3eebe901d98U,
  0x3e8567213cd876e7U, 0x3dd03c563e8f41a5U, 0x3da9950bbe78c0d8U, 0xbdad52653e7c144aU,
  0xbe038c243e5b1e8cU, 0xbea9b52b3e2e9500U, 0xbe7f9d0ebe48d1caU, 0x3c1079c1bced2726U,
  0x3e1303e73be011c1U, 0x3dd41601bc150083U, 0x3e4af75b3e60c150U, 0x3d448b623e3e39c2U,
  0xbe3c2b783e7cfe74U, 0x3e3680b1be0c5ab7U, 0xbe0826873d0d6df7U, 0x3e4e522abe891d9dU,
  0x3e93e55cbe9532c8U, 0x3c84e045bdc47098U, 0x3c5253193e0c5dc1U, 0x3e8203dc3e82ff71U,
  0xbe8eba0b3e53cf47U, 0xbc372066beaf4be2U, 0x3d4a6d8dbe9ba452U, 0xbe8811423e47fc2aU,
  0x3e77fd72be8bb125U, 0x3dc79d5abe822903U, 0x3c397b5bbe0d1345U, 0xbd356f5fbe87929aU,
  0x3d552b023e8d0396U, 0xbc2da45d3dd63ae6U, 0xbe502543be46fb77U, 0xbdbfb1333e98ceafU,
  0xbe6c62383e44cf6bU, 0x3e72405ebdec4234U, 0xbe0e81a73e57976cU, 0x3cbc9e15be0c7b42U,
  0xbea789c3bda68e06U, 0x3e26f3963e37e43fU, 0xbe57f36c3e03deccU, 0xbe49d91c3d4b01d6U,
  0x3deb1ac9be5f86a5U, 0x3d037393bd1f7233U, 0xbe931cc2bd876f6eU, 0x3e1380aabe19c837U,
  0x3e5dfc5c3e90c765U, 0x3d50bb2f3dd80718U, 0x3d26c43cbe3f153dU, 0x3d556bcfbd8b3a17U,
  0x3d9142cfbe067be4U, 0x3e1a4c843c061653U, 0xbe425260bde714d6U, 0xbdb4e0ae3d345e8cU,
  0x3ceae820bd831ba1U, 0x3dd2e24fbea37182U, 0x3de54769be4ddcb4U, 0x3e5b9bef3d453a19U,
  0xbe062ae13e93f82cU, 0xbe2011c1bebde991U, 0x3e1e46eabdb9ed39U, 0xbe31d3dc3cc7ada1U,
  0xbe0631fe3d965a3fU, 0x3c9c8a473e2ff99eU, 0x3e3be3f13ca6ada7U, 0xbdf83fb6bd6857bbU,
  0x3e4e70783e6af189U, 0x3eb7e0193eab8369U, 0x3e80e5733e9a7015U, 0xbe8357793e443f3dU,
  0x3e8c64d83e3ba530U, 0xbe2ed6043deefa36U, 0x3d8527b4be73b4fbU, 0xbe55e90ebe9fe30bU,
  0x3e4daaa63dca5e58U, 0x3cd9882e3e54b820U, 0x3ed00a033ecb0031U, 0xbda00119bb02fb9eU,
  0x3e0ea7f93e362b34U, 0xbd2988353e701c11U, 0x3e8cc1e03e2e46bbU, 0x3edcfc273eaa4813U,
  0xbd41a20e3e57c7bdU, 0x3e8fd80b3e921c8eU, 0x3eaa6f2dbe489d83U, 0x3da1f73fbdc5af7cU,
  0xbb3a0f2fbdd4cbf3U, 0x3ed7901c3f03a8b9U, 0x3c9c533d3eed898dU, 0x3e5952ee3eb0d6c9U,
  0x3ef797923e477347U, 0xbe17319a3e9290a0U, 0x3d625757be710fc4U, 0x3cc6b21a3db26864U,
  0x3e7241ffbd07696dU, 0x3ebd6aef3ea6bc1dU, 0x3edf2db03d47964fU, 0x3eb661413f1b1523U,
  0x3e90ef903da295fcU, 0x3e38c124bcfebf06U, 0x3db4a7da3ced573aU, 0xbed0d6453deb7680U,
  0xbe8a10ff3dd1a73aU, 0xbca0a95c3dbde1d7U, 0x3c808aa3be6e881dU, 0x3b19a6793cb42adfU,
  0x3e7d9b163f156e35U, 0x3e439b6f3e86a8a9U, 0x3f34d58c3f0797a9U, 0x3ee349f43ea56d96U,
  0x3ead95673eac798dU, 0xbc188e1d3eddc9bfU, 0x3eac96eebd45e324U, 0xbcaeb7d33ea6a5edU,
  0x3ea27d143e0aa35aU, 0x3eb577c83e303bbcU, 0x3eb103353d796cb1U, 0x3f1fb37a3db4c9e6U,
  0x3f2a4f113ecb468eU, 0x3e0803673eb1189aU, 0x3f0ba81f3d730019U, 0xbe01318e3e9b9253U,
  0xbdf8a4593e8fdd75U, 0x3e3dc8cf3d98505dU, 0xbcbea3323d1b3b50U, 0x3eea7f2f3ecf597eU,
  0x3de636e33ec50420U, 0x3e9466193e9c890eU, 0x3d931bc63dbe74f9U, 0x3f351aa43f0db5fcU,
  0x3ebf093f3ec305fbU, 0x3ebd78a83ecacddaU, 0xbe8f23ebbe9a212bU, 0x3eb36842be9cac7dU,
  0x3e0144dd3e35ec08U, 0x3ec02885be15113aU, 0xbc8e2c3a3f03ddf2U, 0x3c3d42913d3cdcdeU,
  0x3e4f43ef3eb46b17U, 0x3f10fe323ec27968U, 0x3dc8086c3e9f0d77U, 0x3e42c0c83e3a1e86U,
  0xbe6d4a90bebdae60U, 0xbdf1503fbdd137e2U, 0xbc5492333e832606U, 0x3f00caffbe338bc7U,
  0x3f09d5043e08e6d4U, 0x3f00416c3f2428fbU, 0x3dd502513f088dc4U, 0x3f534c483ec37153U,
  0x3e93e42a3f0147e1U, 0x3e3b83ed3e8cee6dU, 0xbe85331d3cefbff0U, 0x3e836e3cbe2a622eU,
  0x3d253fc83b194ad3U, 0xbdc74ede3d65e24eU, 0x3e241ee63cb57e58U, 0x3f1b7e5d3dbb1a79U,
  0x3db3e30f3ea7b0cdU, 0x3f3aced23e2099ceU, 0x3ed896083ea469abU, 0x3e050817bbace6baU,
  0x3e8551b83deb574cU, 0xbe9192e3be8b2ac0U, 0x3e7d87e23d74487fU, 0xbc024f9ebe41165fU,
  0x3ec35d253d79cda8U, 0x3f39a6d43dfca2ddU, 0x3cc2fd9a3e016da1U, 0x3e4c0cda3e4c6232U,
  0x3eba4de83d3a0f62U, 0x3d9fa2643d573ee8U, 0x3e1ed1113d8123f5U, 0x3dc1819a3e29ad6dU,
  0xbe7764f03d3eac08U, 0x3e17af973e09e714U, 0x3e38e5c6be0f75feU, 0x3e8197ad3e950100U,
  0x3eed38733e5ce95cU, 0x3de646bd3ef0e8b6U, 0x3e9908be3f19580fU, 0xbe9635e43e5100eaU,
  0xbebcb966be7ebe80U, 0xbe54a868bdc58dd9U, 0xbe42a1aabd4e9937U, 0x3f02833ebd418c58U,
  0x3f04f3cb3dbe2079U, 0x3ce5c0703e4377d4U, 0x3dab3fc03e2981c4U, 0x3ebc06d43d94ad94U,
  0x3df8d8633d819971U, 0x3da50e533f198314U, 0x3dfb7dcc3e816130U, 0x3e268d92beacbf6bU,
  0x3d62f77e3e7a28a5U, 0x3da1cad33e940d54U, 0x3d780f143c19d67bU, 0x3e58b8c93ec0f882U,
  0x3f1284083e8fe1f9U, 0x3ed34b9c3ef25874U, 0x3e34afd13bd7849dU, 0xbebfc4053d93d31dU,
  0x3e0284283e36ca10U, 0x3e3bffacbc909f18U, 0x3e876bda3ec3921aU, 0x3e34766d3e07cb36U,
  0x3dce918f3efe34bdU, 0x3e171dda3ef49ccaU, 0x3e9eddaa3df69761U, 0x3eaeb7273ebc8660U,
  0x3e0399b03be0d4c2U, 0xbe3e211bbe239dcbU, 0xbea4f555be73cf75U, 0xbe59cf3abcfa230aU,
  0xbe8f38453e35a990U, 0x3ed0bd123deafbe2U, 0x3ea810013ebc1482U, 0x3e9a24c53c0b001bU,
  0x3e6a7ca03eebba75U, 0xbcdfe8ccbb3c94a1U, 0x3eb436ce3ee9a90fU, 0xbeaf55ef3e6dbc4fU,
  0x3e8632a6be043eb5U, 0xbe6c845a3e7ed565U, 0xbe91254a3ea8fcb4U, 0x3ec62e5d3e4a7a7aU,
  0x3ed783e33e4e347dU, 0x3ef28ffebcc861c4U, 0x3e46ce95be242e8bU, 0x3e9e18373ea061a1U,
  0xbe1213583ea9479dU, 0xbe6bec2bbdbcedc8U, 0xbe04ba2bbe5fce9dU, 0x3eaafd443e7a54bbU,
  0x3ea396023dde51f7U, 0xbe1f0d13bd2d5470U, 0x3e5c52da3d3b0221U, 0x3ed4e03e3e972755U,
  0x3e77373abd342626U, 0xbcc34e1dbe1bd93eU, 0x3e8206963e769dc9U, 0x3e70053c3ee6ca06U,
  0xbe9352133da5ea89U, 0xbe8bd638be2e6ca3U, 0xbda8d205be94df19U, 0xbda87c58bd963df1U,
  0x3e05fa63bdfdf05aU, 0x3e7117333ea0cdcbU, 0x3ed07ef13c841728U, 0x3e2c3ef23c15a35dU,
  0x3ea14ec8be0db5c1U, 0xbe3db8ce3d25e942U, 0xbdebd5ce3e85685cU, 0xbdb9b8943e84356bU,
  0xbe01dd26bd5e480bU, 0xbe644e85be686e84U, 0xbe9b10693b496cefU, 0xbe754967be87cc13U,
  0xbd01889a3d14161cU, 0xbe99b777bda0fc02U, 0xbddd6d26be1ebc56U, 0x3dfb2b883d42bbeeU,
  0x3e8de831bdf7f0a6U, 0xbd96ce0a3d5ae57fU, 0x3e269121be847bd4U, 0xbe80cf553e3cffdcU,
  0xbcbfd941bdebc266U, 0x3df3b0db3e07482eU, 0xbe75efba3e740800U, 0xbe10791abd3c9fa3U,
  0xbe9251873e657ed3U, 0x3cd8dffe3cf54709U, 0x3e83922bbe80a236U, 0xbe5e35ddbdfe4d16U,
  0xbd70ac6d3e55cb84U, 0xbe729f8abeaa76f6U, 0xbd8922e13e02c4d5U, 0xbe80f699be955dfdU,
  0xbec6445cbe5bd358U, 0xbe9c3f97bd738115U, 0xbdda9e053e1d6d62U, 0x3dd2455dbe10bea5U,
  0xbe0080323e47492dU, 0x3e375e7fbe0e3103U, 0xbdf03c7dbe901860U, 0x3e39b4d2bcff222fU,
  0xbecc2c8dbe9e99a2U, 0xbed148fbbd3904deU, 0xbe6e6cc6bd1495b3U, 0xbe244339bba2edd2U,
  0xbb9f895fbe8f3244U, 0x3cde1066bea23d79U, 0x3e6212303dd13799U, 0x3e4668173dc4cbe9U,
  0xbe06f8e3be8a2d0fU, 0xbea76ca9be6090e2U, 0xbe65fb613d200588U, 0xbeb0e8a9bb39debbU,
  0x3e6f1282bcf20fd4U, 0x3d74064b3b9f6ec1U, 0xbeb52ae3bda1611fU, 0x3e50d53bbe1bfa96U,
  0x3e17f5773ce9ebbbU, 0xbe6877cabcdf3952U, 0xbbf9c7bdbeb9cf02U, 0xbde57137bdb1563eU,
  0xbeef34ac3e1af87fU, 0xbeb377cd3d881acbU, 0xbebf05f6be09975eU, 0xbe8d3793be0ee120U,
  0xbc84952bbe86eee8U, 0xbd3f38cfbe8ad3e7U, 0xbde6b3783d054207U, 0x3d98942bbd592145U,
  0x3e560eea3e86247bU, 0xbe1f78f3be36e1fdU, 0xbe8f57243e6f0782U, 0xbdc2bf31be4ae0c2U,
  0x3e326a47be5dec39U, 0xbeb505c8bdaeabf3U, 0x3dc1a0e6be9d6b6dU, 0x3e818459be080498U,
  0x3e036ee1bd5b26e4U, 0x3e95ed0cbd4839e5U, 0xbe623593bcd4d73eU, 0xbe3ea0a7be986131U,
  0xbe90ff63be9c2ae5U, 0x3e850e44bdebb126U, 0x3df8cbae3e60bc7fU, 0x3e40c41b3e2ce405U,
  0x3cdc9d943e781147U, 0xbe414d66be949ae6U, 0xbe03d5f53d7e4987U, 0xbe305bae3e36ebdeU,
  0xbda79a37be6bb1dcU, 0x3e87bbd43dc47829U, 0x3e5fe0623ea9bed3U, 0x3df279193eccbf13U,
  0xbe1193333e7ba79aU, 0xbdc1e4c1bde05430U, 0xbe59c63a3ec566ffU, 0x3c89d6bebeb8742fU,
  0xbe4447a3be1c4aacU, 0x3ca5d20cbe9437c0U, 0xbdf69a8cbd2e44c1U, 0x3d5c8d563cc373d5U,
  0x3ea6b2d33d3df63cU, 0x3ea0bfaf3e871773U, 0x3d1289cb3e5b2e69U, 0x3eaa37e03dee7ce9U,
  0x3e5c5b4a3e9ebc5aU, 0xbcb778b3bc9acf13U, 0xbe6070b33e320d16U, 0xbddcb92b3e84d870U,
  0xbd6f98bf3d91cf25U, 0xbe9e47b03e86af75U, 0x3eddd9e33e66b73eU, 0x3df9cdb83e08382fU,
  0x3ded4c89be2ab259U, 0x3eb3374d3ebe9b9fU, 0x3a9307a13ed5488fU, 0x3e7333c43e7fc979U,
  0x3c459a4fbe61245fU, 0xbe09ed4ebc127d91U, 0x3e44830abe8a4e9eU, 0x3d8369ad3e89c060U,
  0x3ebaad35be4e1928U, 0xbdf327653e860f41U, 0x3d06cc363e4d98aaU, 0x3d36c8323e080035U,
  0xbd8f61823e9af35eU, 0xbe43b270bd0bba4eU, 0xbe61d558bd371fe0U, 0x3d88cd6c3d5eb401U,
  0xbe3a003e3c78e973U, 0x3e4889abbd8b915bU, 0xbd57aed43d11534dU, 0xbe5577d9bcb238e9U,
  0x3d9530babe6ddcfdU, 0x3e48f6c5be96d96bU, 0xbe5ceddabcbe3760U, 0xbe851c233e57cfe8U,
  0xbe95186ebe89539cU, 0x3df29e51be6d3365U, 0xbd1e2fd93d979404U, 0x3ea6dec3be8bb8fcU,
  0x3e5ccca2bc5592f5U, 0xbe95d02c3ea1f2afU, 0xbdee3b10be7e5d91U, 0xbe550f713dc58523U,
  0x3e7c88643c8330e3U, 0xbe4d96623ce16fbfU, 0xbd6064d0be05b15aU, 0xbb35e077bdd3cbf1U,
  0xbe68eb69beb1a23cU, 0xbde0fafabe6aab79U, 0x3ed9c4eb3dd4aad7U, 0xbeb2c8d63ed252acU,
  0xbe70183abe759dd4U, 0x3ecc9331bdd4f0d6U, 0x3e3097f33e2f8433U, 0x3ea618ddbd819426U,
  0xbe9cfb58bdd7094fU, 0xbe577deabe4e0fc0U, 0xbe8d22f33e858f76U, 0x3deebdad3e5b6d17U,
  0x3d0dd8303e98bc25U, 0xbea4d750bd766b49U, 0xbce6966bbe1d686bU, 0x3edcb107beb8f964U,
  0x3d8bc0bb3eefaad8U, 0x3e96a38ebd65338aU, 0xbdfeba3c3e976c18U, 0x3d6426533d663b84U,
  0xbe6cc722be390a43U, 0x3dc9be483e7b2b51U, 0x3e00d472be437a7fU, 0x3e8ca889bca37d61U,
  0x3d8f76043e897572U, 0x3e9a28623e27a68eU, 0x3e8075ed3e32f747U, 0xbe5f35eb3dec287fU,
  0xbe3a0ceebdaaabb1U, 0xbe75810dbda5b1f0U, 0xbd699e7d3d676926U, 0xbe852cb5be783cfbU,
  0xbdf903c5bea2fa0cU, 0xbebc3d613e152b20U, 0x3e8221f6be88e12fU, 0xbe0dd2ce3d9c0bd4U,
  0xbe3ab9133e60ebfbU, 0xbe359bffbd191e3dU, 0x3e650d49be063cedU, 0x3d7048333e75d3bcU,
  0xbdc9901bbd8fa256U, 0xba333090bda0462bU, 0xbd74ec793e68ea46U, 0xbe1cc7ec3da4792dU,
  0x3d2610163df934a0U, 0x3e696f97be969af3U, 0x3e58896f3e3cc718U, 0x3e9233e9be28bce7U,
  0xbe63c0273db72483U, 0xbdb0d6423e3da220U, 0x3e260b683dd88189U, 0xbc8507c4be558012U,
  0xbcf817423de45327U, 0xbdb765f0be8bd8adU, 0x3e07452abead3726U, 0x3e54735abdcf7175U,
  0x3deafc36bcd8722dU, 0xbeaacee43ca59c20U, 0xbe99d12b3e70400dU, 0xbde34839be59cb0bU,
  0xbe35321ebea1fa76U, 0x3e321226be5018f0U, 0x3da74a2fbd4b652aU, 0xbe515984bdbde2cdU,
  0x3e870362be82f76cU, 0xbc10f1e2be1c5611U, 0x3e43553c3e6ace44U, 0xbe147c193e738dfaU,
  0x3e6c8b41be5c3f50U, 0xbe6abc8d3e149eeaU, 0x3e3a2c093e7c8271U, 0xbea06f1c3e8ce345U,
  0x3dd4ce03be9c3a57U, 0x3e8515003d8d799cU, 0xbe99fbb53e5ff730U, 0x3e2f6707be596789U,
  0x3df17f153e8850eaU, 0xbbc987f93d9d9fadU, 0xbe972e783cb7c9b4U, 0x3e4f0a983e1bcf09U,
  0xbd5ef4b2be5c7c1fU, 0xbe9e5fb33e0236b8U, 0xbd3e19b33e4c66f3U, 0x3e24c4523dfb06abU,
  0xbd94cb053e9c7e8aU, 0x3d6ee66ebe5b6d64U, 0x3e66cfa03e1f0dd8U, 0xbdd5f8cabe63abbcU,
  0x3e76d6c03b88693cU, 0x3e75fbf6be7e25d2U, 0x3cff72633e1482c8U, 0x3e6b77babe97b964U,
  0x3e7c082dbe4b8e75U, 0x3e9a7befbda4253aU, 0x3dea7cba3e4c1ae0U, 0x3e1585c73c110541U,
  0x3c358572bddddb4fU, 0x3e1e42cfbe15ff3bU, 0xbe6df8c8be2fd9feU, 0xbe905dfdbda9a467U,
  0xbe756cc53e3be336U, 0x3e862795be28143fU, 0xbe41fa123e6ed1e1U, 0x3db008403e548676U,
  0xbe1c388e3c217781U, 0xbe9a6acdbd4c69afU, 0x3c1227b0be00e483U, 0x3e95dd58bd3f7235U,
  0xbe2edde7bd3a799eU, 0xbe4228abbe97e5abU, 0xbe9dc9fabe08a3bcU, 0x3e6dc6f5be571ea1U,
  0xbdadf9b43e1d1411U, 0xbe8c763abdb34048U, 0x3e123bd5bc98c4e1U, 0x3d3bd6dc3e80bfaaU,
  0x3d976e673e17bb3cU, 0x3e5819b3be01085eU, 0x3dfc4b98be5036d8U, 0x3df030e4bd459e10U,
  0x3e7774c8be294740U, 0xbd8e5ccb3da844afU, 0xbdc865e9be525ecdU, 0x3ea4aab53e92797eU,
  0xbe960e753e2137dbU, 0x3e8715373e5b320bU, 0x3e7b0a9f3dbd5371U, 0xbe663caebe879c25U,
  0x3e849b683dd68b7aU, 0xbda8ca7a3e055fa0U, 0xbe9639d33e385183U, 0xbe94b4fdbdc09976U,
  0xbe803a653dccd97aU, 0xbe29102abd5051e5U, 0xbe598618bd8eb075U, 0x3ea10481be3cec03U,
  0x3e9d69533e0133c3U, 0xbe5092da3d501259U, 0x3e3ea0193dd9cee7U, 0x3e7dc2013d3397baU,
  0xbc4582433e6f495fU, 0x3e62911bbea0dce8U, 0x3d9f44cd3e6c7625U, 0xbe5a81503d2dec98U,
  0x3e9b2de1be397b49U, 0xbd9c18373e1fe2c5U, 0x3c4ce267be2d0440U, 0x3e3be541bd9cca76U,
  0xbe01a6dfbe737930U, 0xbe4312073e76316dU, 0xbcfb4a0b3da26735U, 0xbe87df023e4231a1U,
  0x3e362ecabe099a7bU, 0x3e983aeb3e7a5331U, 0xbd5006743e6008e8U, 0xbe3e24a73dbb8aa7U,
  0x3e3c540b3e7ce89bU, 0x3e8870ec3dbc72bcU, 0x3e801175be10c0daU, 0xbe7c91a93e71ea1eU,
  0xbe00e66d3d816685U, 0x3e3470ce3e8276c8U, 0xbe145b433e601d35U, 0xbc8382fdbe1c9ba9U,
  0xbdcaad10bb892048U, 0xbe804526be28461dU, 0x3db97bb83d91c26cU, 0x3e07136c3e97bd4aU,
  0xbbf74bd6bdb40e41U, 0x3e2fda06be1d9654U, 0xbe7d08443cc34440U, 0xbe9d9dec3ea0966cU,
  0x3e07245fbd8c1855U, 0xbe7b8d9b3e5379dcU, 0x3d0e15debda3439eU, 0xbe22dc9bbe1bd61eU,
  0xbc460dccbe6f8b8bU, 0xbe92d99a3de8b112U, 0xbe963dcdbe56f464U, 0xbd27b97fbe8d2cbbU,
  0xbe8a8aad3e3a5345U, 0x3e9b05c03e9d79cbU, 0x3e9cf8ffbe1f623eU, 0xbe4518cfbe228ac4U,
  0x3de28e2d3e22014eU, 0xbe8d1a303c44c310U, 0x3e327408be13b951U, 0xbe07f8debe45222cU,
  0xbde701933e361893U, 0x3cfd16f1be808495U, 0xbe83ee863dcb0af3U, 0x3dd1dcfcbe9d3796U,
  0x3d9055efbdec8965U, 0x3e59c2aabe3bfb00U, 0xbe1a87073e570934U, 0xbe8940c53dd5f24bU,
  0x3c03dd2dbe430740U, 0x3e857c593e1eae31U, 0x3e328a313e826cb2U, 0x3e5c7213be29fc30U,
  0xbdee15b1bd0af7dfU, 0x3d59184f3e6bd78dU, 0xbe5623c7bd8095e8U, 0x3e4d5d05be26a4a6U,
  0x3e301f3dbdf8e0e8U, 0x3cb3afa3be794c27U, 0xbe02b4b1be7c3efbU, 0x3e930c1f3e40ef5bU,
  0xbe894fa6be656c55U, 0x3e7181ba3e5d8821U, 0x3dbee7683e6ffd31U, 0x3e64f2fbbdc0da1cU,
  0xbe8c490bbe8b035bU, 0xbb9339a6be96e58dU, 0xbe3b7d223e9fc4f3U, 0x3e5be1a83e0a0184U,
  0xbd8f447dbe3d4f69U, 0xbe842328be871bb5U, 0xbd638cdf3e02dbecU, 0x3d8427bebe5d6526U,
  0xbe8b473a3e1e1d43U, 0xbe13a8f93dd3e984U, 0x3e269f693e8e9375U, 0x3e028fc6be12989eU,
  0x3d08ba4f3e054965U, 0x3b2aef803e500310U, 0xbe8742a1bdbe22e7U, 0x3e96d84f3e3d0fabU,
  0xbe6bceb1be515223U, 0x3d4e16ab3e12dda8U, 0xbe047a9cbdc9bf66U, 0xbd1d9a03be9cb590U,
  0xbe4bcec63e840e73U, 0x3dd2b735be5aa430U, 0x3b7a23063e12cb75U, 0xbe11e143be80c433U,
  0x3e4a5d16be1a8c46U, 0xbe9152fb3c9ac030U, 0x3db0536dbd9d3872U, 0x3d071bb63e9d50aeU,
  0xbd3991f53e382b8aU, 0x3e3a33a5bd9158b4U, 0xbe392861bdfcc941U, 0xbe7c24623e9da3aaU,
  0xbe55bb49bd7a81a2U, 0xbe7bf251be916784U, 0xbe3bb07b3d04a624U, 0x3d5f5de23e86dc1cU,
  0x3e5684dd3e9efc33U, 0xbd84e32b3e800de8U, 0x3da0211a3e40d002U, 0xbe8aa524be66aca3U,
  0xbdf281c3be575c12U, 0x3e722fd23d618fe0U, 0xbdc7f0f3bdba7651U, 0xbe0c2318be87bf42U,
  0x3d313b19bd93874dU, 0xbd51d6b83d671630U, 0xbe46da9c3e4eababU, 0x3d8524893dc636c5U,
  0xbe3d3cabbc338f86U, 0xbe0f5e593e57691cU, 0xbe8f05a1be983971U, 0x3e0e7690bd16e1acU,
  0x3e90fb5a3e8675bbU, 0x3e5e06b23e74a902U, 0x3c133c363e65b947U, 0x3e4cd5143be1883bU,
  0x3e929e15bd8e5093U, 0x3c96ef993e4f6e48U, 0xbe50d8733dac22a1U, 0xbe3171163d4e5104U,
  0x3e2b2a9cbc2cec0eU, 0x3d8392d3be88bb58U, 0x3e2551543e929279U, 0x3e86918c3e23ab6eU,
  0x3dfe5f553e71b60dU, 0x3ea282f6be754fbfU, 0xbe16ed423e8e6aa0U, 0x3da26625bd1d6b31U,
  0xbe9c4fb9bdb8e2bbU, 0xbdd868673e8dc0afU, 0xbe09b1b7be0a9b52U, 0x3e47de7bbcf17d91U,
  0xbe7609f33da2d6b0U, 0xbe5810833e5a59dcU, 0xbc5ce9fdbe927fc0U, 0xbe02678abe1b56b0U,
  0x3e044e3b3c8c0a07U, 0xbd4bdc39be72472cU, 0xbe6906b7be281909U, 0xbe14df2b3e1c5e29U,
  0x3e24a6a43de49a3aU, 0xbe0a1511beb55b4cU, 0x3e85bbc93dabf4fdU, 0xbd321def3d56f678U,
  0xbe483d34be5c6fdaU, 0xbe9ac2bfbda2624bU, 0x3da52f08bd174cd3U, 0x3dc3c1c9be2bb3daU,
  0x3d9a805d3e199dc4U, 0xbd92354c3e179515U, 0x3e6f3caa3e491c5eU, 0xbeac6bd6bebbb34bU,
  0x3e6d2c6bbe5431ecU, 0x3dab9f4fbe9d3a9cU, 0xbe96d84e3e91e60aU, 0x3c8996af3e48aa2bU,
  0x3d3829fc3e396c08U, 0x3e18b7cebe854728U, 0x3e936f7fbd5cfd2dU, 0x3da40e39be98003bU,
  0xbdc14e1f3e3a8f7bU, 0xbe8da246be99bd29U, 0xbdfab326bc62021bU, 0x3dbbfab1be25c4ffU,
  0xbe77312a3e2fcc4dU, 0xbcbc48e73de170f1U, 0xbda99733be9e0976U, 0xbe1e827cbe6c7254U,
  0xbe894e273e0d1d01U, 0x3e45447abe2d91a2U, 0xbe9ec016be774c55U, 0x3ea807293d54f5b6U,
  0x3dce7c423e5bcd69U, 0xbe288b8d3e264f74U, 0x3e087de9be85b7c2U, 0xbe1541183df2b685U,
  0x3e0228253bd01a4eU, 0xbe8056fdbe9e81e1U, 0xbe2001acbe4816c1U, 0x3e83fe5d3d1b59edU,
  0xbdffdc243d208ecdU, 0xbd291bac3d6a5ed0U, 0xbe5ae6523da477bcU, 0x3e70ac7b3bd496baU,
  0xbc8b39183eb667beU, 0x3d15ecd23e90aaffU, 0xbe6aab61bc53f885U, 0xbdc640603ea73544U,
  0x3cd321f93eb39b78U, 0x3b4811a7bda1d97cU, 0x3df81c2b3e74a688U, 0x3eed49b7bde50c27U,
  0x3e9068c03e8a794fU, 0x3c7eedcabdd1b312U, 0x3ea379c73e8ee448U, 0x3e47a2123d89e984U,
  0x3db66533bea14766U, 0x3df564b3be3dcd75U, 0x3b42782fbe71b7cfU, 0x3e2b1c14bdb3f652U,
  0x3e62f6b2bc40e613U, 0x3e91106b3e724797U, 0x3e4f3bc23e410cd8U, 0x3edc46733dfc0345U,
  0xbd355f11bd72afe6U, 0xbea8a096bd013f7cU, 0xbe07f1893e1c9784U, 0x3e171eae3e830406U,
  0x3e6f46e43e6767dbU, 0x3eaebb27be28ed75U, 0x3ee89827bdd944c2U, 0x3db7ecd03d8da908U,
  0x3e075f1dbb73c6daU, 0xbd936b0f3e7ba1caU, 0x3edaf2fb3d7155edU, 0xbd93d3a23e0631abU,
  0xbd83319a3e21d9a1U, 0x3de326f53dbf4915U, 0xbe42e5533d4c01bfU, 0x3e4e12543db8ba88U,
  0x3e67dfa23deabb28U, 0xbe299bcc3ecfe203U, 0x3e3c84973ed7d1ecU, 0x3eb762383e87ce0aU,
  0x3e94c516bd8dc0f3U, 0x3c8c4ac03eb0fb72U, 0xbcdb2468bc383c46U, 0x3e2f3974bde35a33U,
  0x3e9c219c3e94ae7dU, 0x3d82c08f3e919581U, 0x3eec9dac3df755eaU, 0x3e97cb8d3dabdb33U,
  0xbe5ca675bdb162a8U, 0x3e8f64d23e559346U, 0x3eb6e0a33edd18baU, 0x3e26262fbdc166e2U,
  0xbd1224a3be4e5ecaU, 0x3e385dafbe288bd4U, 0x3d9fb0a03e267d7dU, 0x3e6383b6bdbd9beaU,
  0x3e6b5a34bdc06a38U, 0x3e86b7c53ee353d7U, 0x3c4644cb3d81641aU, 0x3e53558a3c2817c5U,
  0x3ec4f5d33eaabe9eU, 0x3da2308a3d55e7dbU, 0xbb01eb503d027492U, 0xbc06a410be734e22U,
  0x3e93884dbe534541U, 0x3eb0a2cebe360772U, 0x3d530aa43e8b953fU, 0x3ddc83193eb28ca2U,
  0xbe576763be93b1ecU, 0x3eff1e6ebdeda80dU, 0x3e6e95c23ecded61U, 0xbe4f4d183e77069fU,
  0x3e585387be945610U, 0x3d863a1cbdb91855U, 0x3e1286f73e5da104U, 0x3e24bc0b3ea7f7d8U,
  0x3eebccb83d9ac3f0U, 0xbc9049fe3ee5f6b2U, 0xbe179caa3da3e641U, 0x3ecddd52bde4501bU,
  0x3eeba3443eec614eU, 0x3eb79505bdf1bd48U, 0x3e7009b2bdc08cfcU, 0x3e9870603e6a5f65U,
  0xbda63bdfbe08f4e8U, 0xbd374d803d2b7ec3U, 0xbdce1dc13e972637U, 0x3e0a246e3e881522U,
  0x3e0be7cf3c8ae8e2U, 0x3e92a1b53d8a02feU, 0x3ea48a743e30a3c3U, 0xbe36715f3ebed1c4U,
  0x3e562890be2c795cU, 0x3d8d0b413e9c817eU, 0x3e269b013d8e4f9eU, 0xbe7bb5d6be57e7dfU,
  0xbe0a5bf83e6208baU, 0x3e799f91be52181eU, 0x3e88549b3e95a7b0U, 0x3ddca7073ea732d7U,
  0x3df08ebfbd0e6ceeU, 0x3ea208913ebd9592U, 0xbdbdaa113e849882U, 0x3d63fb7d3e810f20U,
  0xbe0cc9a13da451a0U, 0x3dca80b9be174ee6U, 0x3eb028cb3de64083U, 0xba67b289be1e1833U,
  0x3eaa83c13dcfe575U, 0x3e07a7d53e8cff01U, 0x3e1ab349bdb753f9U, 0xbd1af1873e28e8dfU,
  0x3e7bee363e8a8706U, 0xbe84b52fbe858a9cU, 0xbda6779ebde43810U, 0x3ea07ff5be10612eU,
  0x3ec29f72be4d7d60U, 0xbcc342a6bdfd1841U, 0xbe80dd973e8dd79dU, 0xbe37fc583d404944U,
  0xbe6b5a92be88e015U, 0x3e3aed363e344062U, 0x3e6ed6203e62e1ecU, 0x3db684ecbe0808a5U,
  0x3e92c568bdbaa59aU, 0x3e53b6003dedcaf9U, 0x3e76a028bddc55d0U, 0x3db7380f3e14a9efU,
  0xbe92b79ebe8b5c48U, 0xbe8c2a8abe620718U, 0xbe969db73d96c104U, 0x3e7f4a093e0810ddU,
  0x3e8a302fbe3d5f88U, 0x3ded91733e61d7caU, 0x3dca8994be4343a4U, 0x3e33e9b0be80fe3bU,
  0x3e9144a13d4f8558U, 0x3e541600be85d8a0U, 0xbe0bacb83e8cbe81U, 0xbd0277b3bdb265f9U,
  0xbdbf32c8be950a0eU, 0x3e2eba50be02d08eU, 0x3ce277283b41b0d8U, 0x3e7781d4bdbaf953U,
  0xbe67d14dbc457a39U, 0xbe2611143da23fc2U, 0x3c85870d3e8320e9U, 0xbd2490f83e8284b4U,
  0x3e6efa87be4a93c4U, 0x3db94171be9a0e68U, 0xbdd01ef53c86feedU, 0x3ea156013d1e9fecU,
  0x3d7f93ff3d4741bbU, 0xbe686d76bca2dc47U, 0x3c494be43d53297cU, 0xbe89cd723ea63860U,
  0xbe08d37bbe8e4a0dU, 0x3e5e8b36be156bbfU, 0xbe98b2563e9ee818U, 0xbe82ddcfbe97ebe4U,
  0xbe622a963e90eeb5U, 0xbe3a3196bdc0d409U, 0xbe83aef3bbcdca52U, 0x3df594f5be80c465U,
  0x3e828867bd0893adU, 0x3d63a2843def94d9U, 0x3d395ef3be239584U, 0xbe70e6c03db50686U,
  0xbd8407edbe438ad3U, 0x3e49c8873e94d7baU, 0xbd31baa23dae652fU, 0x3e255107be2e1d23U,
  0xbe811fdebbeb1f0fU, 0x3ec0f63cbb2a37ecU, 0x3ddeb8f53ea8cdd6U, 0xbd0e53e0bde85cabU,
  0x3e93de2cbe214217U, 0x3e797789be59a268U, 0x3e360992be749557U, 0x3dec83dfbe8456c4U,
  0xbe584e6bbdb112b2U, 0x3e1865fc3e00d74cU, 0x3dccedccbe85da0fU, 0xbdeb24033d1b49d4U,
  0xbe3ccd343db170ccU, 0xbe6c262b3e7efc64U, 0x3e01e1463e824031U, 0x3d6530cbbc6229eeU,
  0x3d9d462d3db117baU, 0x3ccfbda13e790a6cU, 0xbcef00d3be7efc9bU, 0xbe9e49a3be1d5804U,
  0x3ded47f53dcb376aU, 0x3e13fb6b3e88c697U, 0xbe9e3759be122d63U, 0x3da9020a3e0978d4U,
  0x3e5d4675bd8c3b93U, 0x3e9774b43d1226a2U, 0xbdf3d4cebe81f3f1U, 0xbe820ec7bde5408eU,
  0xbd400fb1bdc60cd2U, 0xbc66da1f3ddef17bU, 0x3c7b4ba83bc88f38U, 0xbe08941f3d41ba19U,
  0xbe77bc42bea48d4bU, 0x3e90b3c83e0f5e25U, 0x3dbe2d23bd941857U, 0x3d92bf5b3e5b32a3U,
  0x3e1990b7bd8970ebU, 0x3e29703cbd8e60c7U, 0xbe83bc39be36c9cdU, 0x3e87f027bea175f8U,
  0x3e7307f6be0e0536U, 0x3e3f96d63e9510efU, 0xbe71ec8d3d932964U, 0x3e2f95fa3de100a8U,
  0x3e1dc714bd98dd08U, 0xbe6e51f73d2e186aU, 0xbe4410fe3e2607daU, 0xb9ee30e8bdb63245U,
  0xbe8bc2743e871077U, 0xbe3297fcbe294f0aU, 0xbe0db7473e76d607U, 0x3e8963aabe250675U,
  0xbe83a0f73e2518bdU, 0x3e95e4dc3d1318c5U, 0xbcc43f32bdfb08faU, 0x3db663a33e69f6b8U,
  0xbd033f59be86c345U, 0xbca8178bbe261859U, 0x3eb67cba3e367401U, 0xbe33baa23de7cb21U,
  0x3e5b2c923dab3f03U, 0x3e4e5a17bcac3d3bU, 0xbd8302a63e9fcd59U, 0xbe73db373e3a0e40U,
  0x3d123ba53d18ee30U, 0x3e6e14073e23389bU, 0xbe041d0f3e16d2f8U, 0xbe6b90b4bd9f5a7eU,
  0x3e3fe01dbd9261a5U, 0x3cf1e5483e876222U, 0xb9de15673e1dea9bU, 0x3b622ba13d89cfbfU,
  0x3bc778babe2b13f0U, 0x3c8127c53e9644feU, 0xbe7975663d32e617U, 0x3e895d60bdcdedd7U,
  0x3c61881abddad442U, 0x3d91fbd4be1cc0ceU, 0x3e2dd3e93d4ef304U, 0x3e632593be9d7649U,
  0x3dbc61453e652951U, 0x3e13cbcc3e6239a1U, 0x3ca8ec873cb1cfe9U, 0x3dd1e07b3dce18a4U,
  0x3e3b8fc43e470b55U, 0xbd9545a0be436ca6U, 0xbe1ae470bdb782e6U, 0x3dc37774bcfb4c4fU,
  0xbe853f8a3e106eebU, 0xbe749e443dc7d892U, 0xbd61deb6be451e23U, 0xbda0bdedbe2e7b2eU,
  0x3dff6b703c8243aaU, 0x3e4e6c673e873e1fU, 0x3c308adc3da3554fU, 0x3e0f03c13daef909U,
  0xbdea66d23e66f570U, 0x3e643945bdd149c5U, 0xbd99dfa63d298cf4U, 0x3e583bbf3e98b67eU,
  0x3e2978d0bdcf7bd4U, 0x3e837e4b3e1e6949U, 0xbe8921c63dc09bbfU, 0x3d90a5983cb165f2U,
  0x3e51b4ac3dce28ebU, 0x3d85318a3de9f082U, 0xbd985ead3e50f0d0U, 0x3e8d8230be8ba838U,
  0x3de37f14be009307U, 0xbd486d02be7b95bbU, 0x3c6e66d4be7bc8d1U, 0xbe94b1c93d54d491U,
  0xbea1b810be528486U, 0x3c8d16b6be9f741aU, 0xbe83fcca3c9b6affU, 0x3d2a57293dda7593U,
  0xbaf9f4e6be9fa36eU, 0xbd3ee35b3c856f72U, 0xbdf0b7f9be81e60fU, 0xbdb1a83a3e2b2e56U,
  0xbe8ebfa5be86e5e0U, 0x3e0adeefbe3039f9U, 0x3e7d22363dcd3c84U, 0xbe8f5fcdbe41bce0U,
  0x3e051a513e1fd327U, 0xbcfa44d5be776073U, 0xbeb303d73e5df710U, 0x3e268411be81df1dU,
  0xbdfea42bbe1e5b81U, 0xbe7eace73d564d9bU, 0x3e2968fc3dabbf04U, 0xbe7cb351be91fe9eU,
  0xbddd0248be3b9cabU, 0xbd0f24b4be54bc93U, 0xbe07a51dbe97d27cU, 0xbca7c2c1bdacb185U,
  0xbe2ee58b3b7e76f3U, 0xbc3ad1513bf958afU, 0xbdad4df23cacfb31U, 0xbe1111babe1df999U,
  0xbd9c1619bca31787U, 0x3e341e3e3df3089cU, 0xbd3ca51f3e7dd1f9U, 0xbeb00bb53e0d3725U,
  0x3e0b50013db4e6a2U, 0x3e2764073db9896eU, 0x3e07fb0e3e5cb725U, 0x3e47056b3e5d70bcU,
  0x3e5e7f00be0f3806U, 0x3e68a8a03e15eaa0U, 0x3e78d3183d4f8c8cU, 0x3e9adbfe3e5ec014U,
  0xbe9a11853d991576U, 0x3d4ca8b63e4f154fU, 0x3e08b97b3e6cd33dU, 0x3e18724c3e8589eaU,
  0x3da878adbe5b0fcfU, 0xbd0a1372bc22ecb3U, 0x3e888765be01e16cU, 0xbe3a9bd43b8a37c8U,
  0xbe828f1f3e6a94d7U, 0x3c13aedd3d996e37U, 0x3d9e160a3e88dbc6U, 0x3dd134fbbe0de8a9U,
  0x3e84d405bd770ad1U, 0xbe071c2d3e02cf33U, 0xbd71d3fb3e15fc77U, 0xbe48e7debe3c2735U,
  0xbe88c4a13d24c015U, 0xbe540c3e3de92f8aU, 0x3e2bd8f7be82ebf2U, 0x3e791ca5be84e85aU,
  0x3e2e9008be18aaf5U, 0xbdd22240bda17df5U, 0xbcf1a9d6bd30ee7aU, 0xbdedd7163e705b06U,
  0x3e1b7a9b3dbe9252U, 0x3db84788be00ca49U, 0x3da5ec0c3d82a74fU, 0x3e987257be3ead47U,
  0x3df72ee1be3a4b17U, 0x3e7a58f23d9b4182U, 0x3e39db34be877d2eU, 0x3e92c6f83daadc5cU,
  0xbe85bf403e0bed5cU, 0xbe622d02bc96b1e7U, 0xbe94b2e73e40576fU, 0x3e2f75253d9450e1U,
  0xbe6c5aa2be436596U, 0xbe8be318be84cfc7U, 0xbc6f2f543e05117aU, 0x3cccb8ffbdc22e7eU,
  0xbe675b95be6304f7U, 0xbe9b7894be88790cU, 0x3e8707d03de17ee3U, 0xbe085b613a041b44U,
  0x3dd2ab463e18499dU, 0xbe0313ea3e6a5cd7U, 0x3e7416b43e385c59U, 0xbe93aa183e50266eU,
  0x3e9b94983e9521a7U, 0xbe580efdbe657631U, 0xbd432fe4be4da98eU, 0x3e9c89723df2acbeU,
  0x3e5cca4a3e7a0d3fU, 0x3e6c5a3a3dea5e7eU, 0xbe4ae024bde8ec8dU, 0xbe191215bd8b8e80U,
  0x3d46c4913e5a9686U, 0x3e15761ebe736cbdU, 0xbe6c5fddbe1c4883U, 0x3e18193dbe5cdaa9U,
  0xbe14b4cabe948c8dU, 0xbdb463ab3de0f093U, 0xbe54afb7bcd26282U, 0xbc2386103e5a733dU,
  0xbe97ac633e15721aU, 0x3e3bd5c6bd3fda21U, 0x3e0d1448bdc5a970U, 0x3dde2d8dbca8cea3U,
  0x3e53b2ca3e9ccbc2U, 0xbe9118dcbd6bef41U, 0x3e652aee3e2bd0c8U, 0xbe4ce251bde86742U,
  0xbdab61883e86578dU, 0xbe7298f93e1b723eU, 0x3e868cad3e5d6ab3U, 0xbcb95e253df3bdd1U,
  0x3d5cf01f3e84ee79U, 0xbdcba878bd73a0d1U, 0x3cec5ab53e7a11b0U, 0x3e0544a73e75b574U,
  0xbdf61f5cbe6fb2daU, 0xbd8f0cd1be3ae66bU, 0x3d8b14b5bc03c144U, 0xbd53296c3e4348efU,
  0xbe81baca3e63b3ecU, 0x3e5e0b383e82ef9fU, 0xbe96d4393e122fb8U, 0x3de3beef3dcd8762U,
  0xbe33598f3de30e91U, 0xbe5b5b843dc2a888U, 0xbe8d4ce0be89fa8eU, 0xbd86e9d6be25272bU,
  0xbd991aa93e0073caU, 0xbe451d2abe25788eU, 0xbe0f6b613dc80f49U, 0x3e2ac9b6bde2b009U,
  0xbd8217f63e67c93dU, 0x3da5c10fbe545378U, 0xbe66abecbe169e8cU, 0x3c59cc5fbe4899d4U,
  0xbe78f6973e830776U, 0x3e43eeb83e72cec6U, 0xbe8aed3fbd1e87e6U, 0xbdfe3948bdc1716eU,
  0xbe94b9bfbe54e6ccU, 0x3e6505d73e2f95c9U, 0xbe90b7f93e32573dU, 0x3e90cbfe3cdaf3cdU,
  0xbdbdd9a23d9cd8e8U, 0xbdda320cbd172ac5U, 0xbd5a97c7be85c132U, 0x3e3223673e86ec50U,
  0xbda34fb6be496ea5U, 0x3e47ebe1be81b9d8U, 0x3e8c248a3e53c656U, 0xbd281d61bd05ef94U,
  0x3e9b4243be9b5bf4U, 0x3daa9309be9a47aaU, 0xbdda07e0be99ff97U, 0xbe6f47ca3da856d5U,
  0xbe3a9667bd831aaeU, 0x3cf180a9bd066f4aU, 0x3d4e3efd3e932ebcU, 0x3d0a4e2a3e8b3ff5U,
  0xbcbc1d65bddb46f4U, 0xbe35dd12bdb0185eU, 0xbe7c40bc3e956a6dU, 0xbc06c657be876180U,
  0xbd9e04873da5899bU, 0xbdf9c7a63e821f4cU, 0x3d6270283deee3a6U, 0xbe94ab4abe488724U,
  0xbe8694abbb917390U, 0xbe4ad5503d1dc7dfU, 0xbe082548be1a9fc9U, 0x3d575d9b3e754b3dU,
  0x3d9590aa3d9174a7U, 0xbe98801cbdafa7c2U, 0xbe73340abc97785fU, 0xbe1df35bbe197de2U,
  0x3e792f74bc96a6b6U, 0x3c67d84e3c4e7297U, 0x3d8d7ba4be505848U, 0xbe8342d5be924b7dU,
  0xbdfba7233e06085bU, 0xba762e63bd0a4a73U, 0x3de74b42bdaed489U, 0xbdd3dd343e19bb8dU,
  0xbd3f27373e809056U, 0x3d9073c73cbfe794U, 0x3e832b9c3e901318U, 0x3e0a7466be8a0cf9U,
  0xbdc2d414be62131dU, 0xbdf1bd3ebe7284efU, 0x3d9184493d16be85U, 0xbe0a23b2be5b03ccU,
  0xbddd0e87bc005e0aU, 0x3cf88e9dbe96296cU, 0x3dfbc2f93e7308acU, 0x3e8f4c6b3dc5da8bU,
  0xbdfc97113e1461afU, 0xbe3ef27ebd664ab0U, 0x3e66d167be2c4c2aU, 0x3e506f49bdcfd384U,
  0xbe91c5acbbc42d71U, 0x3e23ff25be62cf9eU, 0x3e6faaccbe9043e2U, 0xbe4852f13e8f74beU,
  0xbe545ba8bda8f2e8U, 0xbcc36664be61a52bU, 0xbe68fcbabe7b9d55U, 0x3e800b4dbdbe21c1U,
  0x3df31c2bbe8862daU, 0xbe64c7bebe15417fU, 0xbdce8a903dd9cac9U, 0x3e520eaf3e2c3eb9U,
  0x3e65a794be861a7eU, 0xbe0cb77ebe695fd6U, 0xbe1b64133c901fd5U, 0xbe84f1a2be2e0f21U,
  0x3cdf6b133df29e0aU, 0xbd49e2f0be170fc3U, 0x3e8e5dd9be1c7dc2U, 0xbdff7f683e7315d4U,
  0xbe7ce32b3e99d4f9U, 0x3e2834753e936771U, 0xbe9225b6bd8f2005U, 0xbe167728bddd07bcU,
  0xbdf0af8ebd088ab0U, 0xbe66d09cbe440ef3U, 0xbd27d1edbb8ad3a3U, 0xbe7eb925bdfde380U,
  0xbe68c30cbd573959U, 0x3deeb48a3e31507aU, 0xbe9b5db03e9ba565U, 0xbe4c75e13e5f07ffU,
  0xbce0f0193d989cc5U, 0xbca17480bd4eebb6U, 0x3e9e0b813cf2bad2U, 0x3de9cc7bbe6b1b4cU,
  0x3e57d4c13e874e83U, 0x3d72fc37bd054911U, 0x3df2954c3d91cd3fU, 0xbdf82852be2e8df4U,
  0x3de5b1163b9176c2U, 0x3e7abf1a3e2c03e3U, 0x3e0d21963e9161b9U, 0xbe6a2cf33e8f5cbeU,
  0x3d1ec1ce3e0b6f56U, 0x3e23b37cbd14a9caU, 0x3e257dd7be2ce3b7U, 0x3c469bccbd52b190U,
  0xbde2a9a73e5fc794U, 0xbd53d3723e884aa2U, 0xbe64f2f8be7ebfa9U, 0xbe44a606be96ab7dU,
  0xbe9a81d2be76b02aU, 0x3e560a4c3e82ba7cU, 0x3d8f71fe3e068260U, 0x3e27ad85be29e26dU,
  0xbe7512d53d682ca9U, 0xbe8a2cf23e9858b6U, 0xbe4e574bbe37a052U, 0x3e17da1f3d05e9e5U,
  0x3e74ec613ce62883U, 0x3e3ee241be908461U, 0x3c6d34b0bd045815U, 0x3ea30a4f3e2b41e1U,
  0x3e99cb28be2d5ec5U, 0x3d9b3c42be5a2d91U, 0xbdc2963cbe3cd558U, 0x3e26568cbe8d6916U,
  0xbe88b9873e212ccaU, 0x3d6f716d3dc38c05U, 0xbe0155943c47339fU, 0x3e881c383e86391aU,
  0xbe19c76f3e923d0fU, 0xbe381fe4baa8e418U, 0xbd95f9fb3e230a35U, 0x3e5c9b273e456454U,
  0x3e81150b3ea4ba25U, 0xbcef3252be5cc6afU, 0x3e6e8d20bd05454fU, 0x3e22a2f53eaf41c2U,
  0x3bfd8c56bdd7538aU, 0xbe69b9293e52a161U, 0x3e422ec83e08d5f0U, 0xbd9494b33c0f5926U,
  0x3e2921643c22f20cU, 0x3e61fa7c3d7a41f8U, 0xbe54b7703e4298e8U, 0xbe7ce40fbdbef05fU,
  0x3dfee4513eba8e56U, 0xbe4a190e3eb03106U, 0xbe7b32423e31faf2U, 0xbe865fd1bd91dcc9U,
  0x3cbd1e07be03fd89U, 0xbc375109bc9dc7dbU, 0xbe1a1f4fbdd9b453U, 0xbe61e5c5be50da43U,
  0x3da2b09a3e5d5044U, 0x3eaf5f68be2c24d6U, 0x3ea4fa12bda03f74U, 0x3d9137413e2f7009U,
  0xbe260ee1be2560a6U, 0x3c88254fbcf9fbd4U, 0x3e9144f93dc48bb4U, 0x3e95d9163e6eb13bU,
  0xbb054ace3ea516a8U, 0xbe8e86e33cf82f6aU, 0xbe8423323d2cb62bU, 0xbdc19da4bd7c1d5eU,
  0x3e3bdaa33e65c5aaU, 0x3e902f5dbe354e4cU, 0x3e825b493d2a9d48U, 0x3e51569c3e008016U,
  0xbe0ddbd6bdaea6e4U, 0x3d5c7bfebe5b2810U, 0x3d105ae9be21a2ceU, 0xbcc70f18be673e8bU,
  0x3e043567be8973b6U, 0xbe00c4b33e612984U, 0x3d75b31bbe4e27faU, 0x3e9007073e684d78U,
  0x3e89e18f3e0c19a9U, 0xbe4d02f9bdc8e8a7U, 0x3e95f9fe3e2c4a97U, 0xbe6b967bbdf75decU,
  0x3c9aac1a3d5a5c16U, 0xbe7694903e295062U, 0x3dc19edebe8a8893U, 0x3ddcb674bc079424U,
  0x3ce94482bdb35a38U, 0xbe35eee3be2416e4U, 0x3df17e283d8606a3U, 0x3e3c975fbe7db8c0U,
  0x3e0ef81a3defccebU, 0xbe54966e3e4e5ee0U, 0xbe5c9c813e18bc57U, 0xbe8326553e348b5dU,
  0xbd9f781f3c4c0537U, 0x3e451d37bd5f7f50U, 0x3e29350bbdc563c5U, 0xbddcf7fe3e2ef02fU,
  0xbe17d6f3bdd0d619U, 0x3e689fa03e9fd96cU, 0xbd0392d0be3e6174U, 0x3df40acf3d60771fU,
  0x3d0ff6da3e6a0aeaU, 0x3e65b9dabe521358U, 0x3e93769bbe753baeU, 0x3e438340bdd57c12U,
  0x3e620fb93e1d5065U, 0xbd968523be025b7fU, 0x3e59ab913db26276U, 0x3e0f11d6bd42ba28U,
  0x3e62384d3daff445U, 0x3e60c3c63e4ab763U, 0x3c89c9ba3e62268eU, 0x3e2890d93dfae139U,
  0xbe2c44ffbe06459bU, 0x3eab4029bd4f6985U, 0x3da0bdfe3d78c8a7U, 0x3e41368f3e992263U,
  0xbe46a9863e8f55e1U, 0xbd72e40bbe496586U, 0x3e14fef0bddacbe9U, 0x3e8655383de89ad9U,
  0xbe053d0e3e56fd45U, 0xbe7c78173e200cddU, 0x3e361fc43e31116dU, 0xbe62706dbe7bb052U,
  0xbe1b8b1f3e6b5864U, 0xbdb26be13e80fd11U, 0x3e525d0abd239111U, 0x3dce9344be4457ecU,
  0xbe4fd740bd0e33d4U, 0xbe3202803e60ea95U, 0x3e4f06913d928cacU, 0x3d26d14dbe98f200U,
  0x3cf120fd3e127c4bU, 0x3df9e0c23e7312a2U, 0xbd2af3613e9063c2U, 0x3bdbe826be557801U,
  0xbe1d2c69be2cd304U, 0xbe7cab083dfae587U, 0xbe743c543bcfe29cU, 0xbe52aecc3df316edU,
  0x3e77f07cbcb17f08U, 0xbe28fd283d282a1cU, 0x3e7b4a803e8909ecU, 0x3e600049be110efbU,
  0x3e8b0629be851ec3U, 0xbd0f4fcb3e5f2ba3U, 0xbcf08ed33e203a2fU, 0x3d8a174abe992e9fU,
  0x3e5c853fbe7e6eecU, 0xbe26e7a03e6c0126U, 0x3da93408bea1b2dbU, 0xbe1ca1b3be17e5faU,
  0xbd24ac2b3e71c565U, 0xbe190eabbe3ccb31U, 0x3e8cd9d2be9506a4U, 0x3d44b8bdbd7e4f9bU,
  0xbda6f735bd86f1f5U, 0xbe17eea03d99b176U, 0x3e7e3a533dfb3c3eU, 0x3e35a9773de22e89U,
  0xbe80b55e3e319b73U, 0x3e0cbeff3d5a90b3U, 0x3d9f55d0bd5118ebU, 0x3e85599b3c402091U,
  0xbdbd276a3e76d61aU, 0xbe25ad31be85e187U, 0x3cff2cbcbe79c502U, 0xbe9b265fbe045b65U,
  0x3e7de6d6be194db8U, 0xba6a7229bd4d0df3U, 0xbe6067173cf1104eU, 0xbd0f053ebd01037eU,
  0x3d6702e93e874277U, 0x3e7626f03da836c7U, 0xbe19f1c5bd14f81eU, 0x3d7be3503dbc2653U,
  0xbe926a66be183981U, 0xbe8be9b1be9874d9U, 0xbe973e973e191994U, 0xbe91ae4dbe7736b5U,
  0x3d2641fcbe781ea1U, 0x3e1332313d0083ccU, 0x3d9aaec6bdba3f78U, 0xbe75c052bd8db2eeU,
  0x3e20c1f8bdcadda3U, 0xbe91077dbd6f1fb5U, 0x3e1df9d03e92b8d4U, 0xbe8c2377bd1abb03U,
  0xbe8d5c14be3b30c6U, 0xbe9cb0393e8027b1U, 0xbe45bac5bd9f99c8U, 0xbe19a5babe63de84U,
  0xbeba8d76bf034c4cU, 0xbe9a300abed6c5a2U, 0xbea2df70be583e04U, 0x3c6ff82bbce6e8a0U,
  0xbe4f4722be15ea65U, 0xbe90f14f3d4aea1bU, 0x3c816b35becc08a4U, 0xbea8dc0bbe0fe4f7U,
  0x3df50e52be012d10U, 0xbeec97dbbe99de25U, 0xbe688c2cbc4ebc50U, 0x3e259e7b3e0f64dcU,
  0xbe81425a3dee9176U, 0xbe83706bbea99a1eU, 0x3afdd9e4beba00c2U, 0x3c40891bbe864943U,
  0x3e4f7a363ec987f7U, 0x3e628fc53de0840bU, 0xbe53bf69be006df0U, 0x3e4fc8613e1b0b19U,
  0xbc2c2df4be368713U, 0x3ea581f23e20ddfcU, 0x3bbb25e1beb36926U, 0x3ea93ede3eb186baU,
  0xbe2c1527be1cbfb5U, 0x3e7ec3723ebf004cU, 0x3ece1997be79c5bbU, 0x3e3307bbbdb204ddU,
  0xbe94d4af3dba94a6U, 0xbeb4f014bd677801U, 0xbd074510bddd72a8U, 0x3e6d3f8abe62ed78U,
  0xbe9ff6053a27a563U, 0x3e8775c13effb98eU, 0x3eb5d7a93efbb937U, 0x3efac456be5330a5U,
  0xbe884a3a3d4d69d1U, 0xbe939cdb3daffda9U, 0xbec52efdbd10ec62U, 0xbe603979becc5d78U,
  0x3e3d72ba3dba5457U, 0xbc14fc873a8ff4dfU, 0x3e480b813ec5e43fU, 0x3eb3bdfe3dff2a0aU,
  0x3ed6a5a93bcd048dU, 0x3e8cc1ddbc6adf7fU, 0x3e2556e13e4f928eU, 0xbe908bf53dff3b47U,
  0x3dc3b563bdf2aa28U, 0xbe827e3cbe7d993bU, 0xbdac68183cf220d4U, 0x3e20c11b3e0f9c95U,
  0x3eb856f43ec58df4U, 0x3ea32c343f10da8dU, 0x3ede88143f2d49c7U, 0xbca21be03e902bd0U,
  0xbd71e3f43eaa324fU, 0x3e6834313e4ed361U, 0xbebe860a3dc681a7U, 0xbe8daf0a3c1a41f5U,
  0xbeb9b1ff3d83e407U, 0xbd1519393e70a22bU, 0x3e5bfba73ec848b7U, 0x3f0bdd2c3de25872U,
  0x3e3dd4863eb941a9U, 0x3db179d73e969eeeU, 0x3e1481183f03d4b8U, 0xbe0934d23f10b6aaU,
  0xbea5cdf0beb65f9aU, 0x3dd0d1e73cc06bc0U, 0xbe95707dbe8208f7U, 0xbd4910f6be9395ecU,
  0x3d9792013e3ed27cU, 0x3f0cc8353dc8ee48U, 0x3f2e5a5c3e8f020dU, 0x3f3df99d3ee85581U,
  0xbe4b7fa73ed0104dU, 0x3d0dfd80be86d642U, 0xbeea0294bd111d0bU, 0x3c8de2c93d36a62cU,
  0xbe9cb2693e9a32f2U, 0xbdc833e7beade355U, 0x3dcd5d5f3d53fb95U, 0x3f0de9fb3eebf44fU,
  0x3ede8e1f3d37be32U, 0x3f3d847abb888055U, 0xbea9301ebc921fd5U, 0x3e6eeb573e7e0fedU,
  0x3d8a48d0be16b2deU, 0xbe972e58be98c786U, 0xbe96556b3cfc23e5U, 0x3e919917be1935d1U,
  0x3e9e993d3e0def97U, 0x3e50bab23e3ca3b7U, 0x3f0735023e561af6U, 0x3ed4cd943f3f8b7bU,
  0xbd534c543ea6e55cU, 0xbde5fcd93e96a898U, 0xbe7f464bbe1ed193U, 0xbe7959a2be765c33U,
  0xbc86c76ebd6f6368U, 0x3ed43750be0eec9eU, 0xbc3776503ebcfa1aU, 0x3ed8490abbd61197U,
  0x3e8562433ee8432fU, 0x3e4f12283e851e3bU, 0x3eccaa063d046d02U, 0xbdce344c3dce24daU,
  0xbd3985603e70c23bU, 0xbe983d7cbeb5898bU, 0x3cd5ae7d3e8bd8c0U, 0xbe0eee083db43420U,
  0x3e8e4df33f1317f9U, 0x3ea3c70f3d9d7f94U, 0x3ed154f23dd02bcfU, 0x3ea88c033e3941a2U,
  0x3e20101c3e34bc99U, 0xbda96e973e931a5dU, 0xbe37a2dbbe133867U, 0x3e1e0228be5996cfU,
  0xbcb0d98b3de8dac6U, 0x3ea3f3213c9ad875U, 0x3ed1df6d3c76b027U, 0x3ebb8cf13f0f9d98U,
  0x3e78a4163ee63f65U, 0x3ec4ed7dbd1056ffU, 0x3d7462fa3eee869bU, 0x3af4c0d63e2b02b1U,
  0xbe1dcc8bbe9fc7cbU, 0xbe909adebecb1341U, 0xbe3deb513d7366baU, 0x3e4564143e8cc4e3U,
  0x3f11cf953e78289fU, 0x3e99c5f03e759980U, 0x3e983eee3db98bc4U, 0x3eff26623ef1b1dfU,
  0x3dfe9d543e3febb2U, 0x3e143b3e3e873ab7U, 0xbe5ad775be963663U, 0xbee5939c3d7b7c4aU,
  0x3e012e473d13b3b5U, 0x3e7927bdbe3ec6adU, 0x3e6bd4c83ea37a7aU, 0x3eee181f3e9b6a41U,
  0x3f0783bd3f2c4e00U, 0x3e93c97a3e5f3627U, 0x3ed838e03f12bec8U, 0x3e8e528b3ce88f44U,
  0xbe1638f43d970879U, 0xbd893b68be97c88dU, 0x3e3a4ce9bd3d6784U, 0xbe0bd69fbe1f683eU,
  0x3e1bf7d83e504cc4U, 0x3ce9f2fc3da31d49U, 0x3f130e713d432687U, 0xbd99c64bbd33e91eU,
  0x3ea27c0cbe429846U, 0xbde6b702bc0d23deU, 0xbc2ec2dbbef0932bU, 0x3e4719dbbe1272dbU,
  0x3dcefedbbe0d827fU, 0x3d183d113cd671feU, 0x3e8fee10bd5d2537U, 0x3d868b1a3e3440e9U,
  0x3eb49fb53ef4d913U, 0xbc2e1ad43e130742U, 0xbb61c7653dd6f408U, 0xbde47e7ebe2434c2U,
  0xbde87fbdbe23643cU, 0xbe26cbc33c6ded71U, 0xbd37255ebad642f4U, 0xbe80eaf6bd069ce0U,
  0xbea20bca3db40533U, 0xbdaffe08bd9114afU, 0x3da51eda3ea3461aU, 0x3e10d5e23d8b1ac0U,
  0x3ddbc1b23d024baaU, 0x3e191de93c40ab58U, 0x3dcfbe493ea0f9cbU, 0xbeabc3dabed125a5U,
  0xbe66ba04bebeff52U, 0x3e2e10653e2c579cU, 0xbe280ed53dfff80aU, 0xbe3335b2bce82f54U,
  0x3dbc1e8a3e09c86fU, 0x3eaa16cbbe1bda82U, 0xbde662ab3c531f06U, 0x3ed5c4703eaa32a2U,
  0xbcf5a97c3ea1889cU, 0xbe8d32e03e2dd571U, 0xbc815479be05956cU, 0xbef77b9dbe4fd743U,
  0xbf361432bf103770U, 0xbe7668b7bec9f391U, 0x3c476fb93db15e69U, 0xbe5ccd7ebeafb95aU,
  0x3dfd5eafbc2cc087U, 0xbed055ecbec8a5deU, 0x3e5937f8bea767b1U, 0xbd95ca97be01ec11U,
  0xbe768f00bea66876U, 0xbe82e5c0bd9c7470U, 0x3e25a777bcd1de36U, 0xbdb85d99be932178U,
  0xbe6b27863e3dcbe2U, 0xbe917f25be068c04U, 0x3e91fcca3e69af27U, 0x3e6bb0f63d49dcebU,
  0xbe8e39afbe8b6f5aU, 0x3cef0d0bbddb449bU, 0x3e8b4e783dc6aeb8U, 0xbdaff5a6bdd6d312U,
  0xbe80b4a3bde6facaU, 0x3e9103afbe936846U, 0x3ccac89c3e171816U, 0xbda67fa03e09201dU,
  0x3e3812f63d593367U, 0xbd95d136be26760aU, 0xbe3b6eaf3e8e6f19U, 0xbc81479cbe80a909U,
  0xbeb17438bd4a6023U, 0xbe99a7d8be8820e7U, 0xbe5632853dc63f91U, 0xbe1425cd3dd828e3U,
  0x3e6ab5613e8f6e47U, 0x3d33a12abe3c5005U, 0x3e41f621bdd208d1U, 0xbea8d1a4be24e75aU,
  0x3e96fcfabe332f23U, 0xbcf346733e841bc5U, 0x3e0ee23f3e563637U, 0x3e00afc63e0981f8U,
  0xbe06235abe325bf2U, 0xbe6cf4edbeb90d53U, 0x3e8b368b3e7bee38U, 0xbe630459bd6cf659U,
  0x3dbe4d503d471d30U, 0xbe45f043be029c2dU, 0x3e0bfe92be883013U, 0x3e84a2d6bd43aa54U,
  0xbe4b780f3e8bc0bdU, 0x3e56117dbcca01adU, 0x3d14bcae3e8982a2U, 0xbe73dcdd3e1a102eU,
  0x3e60d7e3be0d5e26U, 0xbe2f666f3e4ce65dU, 0x3e5e8e513c604fd8U, 0x3de820b23e600962U,
  0xbe0a4a973912bfd6U, 0x3e3c9b01be7b96adU, 0xbe5c22c8bea1a5c0U, 0xbea80a02be70dff1U,
  0x3e5968a7be745341U, 0xbcbd1c18bdd4b85dU, 0xbe62d49d3e663d2fU, 0xbdc51090bea003c6U,
  0x3d5133363e97e877U, 0x3ce6f917be37b9e7U, 0xbe57da36be8aaa8eU, 0xbd791ccabe68636dU,
  0x3db44263bd114614U, 0x3d27d8ec3dd5a54fU, 0x3db901febdc728d8U, 0x3e0e1e3e3d939dfeU,
  0xbaabb8233e3fc017U, 0xbe6072a5bcd06f1dU, 0xbe09d1a93c420cabU, 0xbd1f44143dc71a91U,
  0x3e83076dbea31e7bU, 0xbea336643c789802U, 0x3e088855be311d4aU, 0x3d9c9720beaf677dU,
  0xbe34e2cbbc9dae87U, 0xbd4baeafbe93fc19U, 0x3e4748e5be98279aU, 0xbe0c4191be8afa7cU,
  0x3e675563be9169a1U, 0x3e257365be3a43ffU, 0x3e8be250bd66a2c6U, 0xbe5b89a5bc1acc4aU,
  0x3e98b03abe7102efU, 0x3c237e71ba93b8b5U, 0xbec8e88cbdd79be3U, 0xbec0d55fbe3ec662U,
  0x3cc73f83be25c2a6U, 0x3e87d12d3dc6af20U, 0xbcfe59c03e75fae2U, 0xbdcb7c9ebe70e170U,
  0xbe3e7c7bbe2abf79U, 0x3e00df20be13206cU, 0x3ea8fd1c3e9812c5U, 0xbe63e65c3e907e25U,
  0xbe22a35dbebf2547U, 0x3d1988273e6a807dU, 0xbe50ad9dbeb50a4aU, 0x3e98e40cbdf51071U,
  0x3e6bf0203e847ee0U, 0xbc6e0e653c87577cU, 0x3e467959be80fce9U, 0x3c7b51643d568146U,
  0x3dbca4113e8aaba6U, 0x3be190d23ddc26ceU, 0x3e13ccef39922f88U, 0xbecc7f433dceb3beU,
  0x3db8cf03be43a2e7U, 0xbe8f98eebe9a03b0U, 0x3d1393113e83e3fcU, 0x3e9786413e279d2bU,
  0x3deb4d7d3e8dcffeU, 0xbe571a85be538c7eU, 0xbe1eddcb3d160127U, 0x3e42870ebda44172U,
  0x3dea430cbdd4e821U, 0x3e84dbf23e52ec99U, 0xbe0e3a9d3dd9fcf1U, 0xbd8bf353be9eb1bbU,
  0x3e80cd793dd6766bU, 0x3e01288e3b4f2966U, 0x3e908fa9be33c975U, 0x3e1aed10bea627e6U,
  0x3cb8467cbe820ce2U, 0xbe8b2615bcc0b2a7U, 0x3e67473b3dd98f80U, 0x3e6ed12e3df9fdfcU,
  0x3e5e7d163c9b4cd4U, 0xbeb6f052bec50f62U, 0x3e8833eb3e77de1fU, 0xbdd626673e000cf0U,
  0xbe9af86ebe23de1bU, 0xbe71f000be925b68U, 0xbd82386ebd8bd6f1U, 0x3e1306f43defa154U,
  0xbe4f825bbe6840f7U, 0xbdf96ee93e5f8eecU, 0xbece10243e82d969U, 0x3d0d8c753e09aff9U,
  0xbeb77badbe92aaf8U, 0xbe53cf793e2a34d3U, 0xbddedbff3e2e4a2eU, 0xbe9a72243d51969bU,
  0x3d6564383e03eac6U, 0x3d1a44e83db5620dU, 0x3e4fa30fbec87834U, 0x3dd35780beb78918U,
  0xbea1bf57beab7695U, 0xbe5be3cebeb936f6U, 0xbeac0b3b3c1fc490U, 0xbd6850233e3c341dU,
  0xbe27ea193ca22f9aU, 0x3dee9f643eaa88b2U, 0x3e25620dbe745c2fU, 0xbd8af7f8be703e99U,
  0xbec837c43e80339bU, 0xbec1cdce3e80604fU, 0x3e861128be9ad30cU, 0xbd48dc43be828ac6U,
  0x3d60b253bde9bee7U, 0xbd0f21573da982efU, 0xbeab1f66bdeb309cU, 0x3e589bb23e8ccdd3U,
  0x3e66d10d3e2e76fdU, 0x3e459ac03df2dd99U, 0xbd8d2fb43e9716caU, 0xbe97c395bebd6301U,
  0x3e6a98943e1291edU, 0xbe5a3eaa3e57e023U, 0x3c67c076be5024d8U, 0xbeb181363e8f2711U,
  0xbe1ee1b3bdf73840U, 0xbd5417acbd115b02U, 0xbe260cffbe87d2dcU, 0x3e7a77a1be3ad374U,
  0xbd343d2e3e4af512U, 0xbd3a3b2c3ddf4cc5U, 0xbd2786febd338673U, 0x3e8729b3beb5cee7U,
  0x3d4daea3be99301aU, 0xbe938038bc912a21U, 0xbce2cad3beb25c92U, 0xbe518a073e8a1a6aU,
  0x3e868bd2bd3fe6c4U, 0x3e87c1b5bc61f1adU, 0xbe81129e3e596c90U, 0x3e4d6faebea2814dU,
  0x3d8d9b3bbea5ed26U, 0xbea20a8fbe5a1824U, 0xbe74c8773b56e008U, 0xbeaf4c86be355b23U,
  0x3e51e5833e85ecf4U, 0xbc7588493d4cfe33U, 0x3e2b140cbe9d8370U, 0xbdebd0493e19fa7eU,
  0x3e867516be93dd6bU, 0xbda5c25cbe272317U, 0x3e41b4723ea7c84cU, 0x3e8f84aabe60519fU,
  0x3e558cb5be9edda1U, 0x3de0a15a3e2bc35dU, 0xbdb6f1823e351184U, 0x3e3093263e87d96bU,
  0xbe7fe282bc66a712U, 0xbba69bdcbe8b56d0U, 0xbe8f40c33d895e67U, 0x3eae7e8c3d2f432eU,
  0xbc65997dbdb5c15fU, 0x3e5bd3b3bea60bd5U, 0x3c9f10f13e22ae14U, 0xbdcd2388bdcd7499U,
  0x3e317b543e50e5d5U, 0x3db61b12bd78e1b5U, 0xbe09aaff3e282e84U, 0x3d9bdd28bdd3ed33U,
  0xbc5471543e02d0fdU, 0x3ebf9fa8bd452de4U, 0x3e2949a83e5cd7b3U, 0xbc363009be54e1e3U,
  0x3e70f0c13e556e52U, 0x3d0a2318be221974U, 0xbe1560333ed7affaU, 0x3e245742be0c5ec0U,
  0x3e8156a2bd433343U, 0x3e800062be699947U, 0x3e5ee3d1be00d7bdU, 0x3e162abdbe568e76U,
  0x3ebf266b3e441bfeU, 0xbdd198cdbe9b0098U, 0x3e47d6c73c6a2285U, 0x3ed297c83ead4040U,
  0xbd1524df3defafd0U, 0x3e5c84e63e39c847U, 0x3b8a1c6ebe0f245fU, 0x3ed757e33e88b67bU,
  0x3dd8d2e6bd0536afU, 0x3c635c243eabc6d1U, 0xbe048bbd3d965157U, 0x3e91764dbe66bd62U,
  0xbe9e20073e7713c1U, 0x3d88c674be906224U, 0x3e86d8193e650093U, 0xbe1e7aa4be0cb70eU,
  0x3ea640843ec0cde7U, 0x3ee22385be02ba92U, 0x3bd383cbbd36f8e6U, 0xbe337562bd783457U,
  0x3d03a3fdbe103fffU, 0x3deebc5fbe2c5972U, 0xbec3ee30be294886U, 0xbd737d2a3e912ae7U,
  0x3c5961f13ec7ad72U, 0x3d7bc5dd3ecc4ed9U, 0x3d0f9943be4cedb2U, 0x3e4c4a3d3d492968U,
  0x3e526cec3db21862U, 0x3e2bb5263e08c5c6U, 0xbd7739623ec25ef0U, 0x3e53777ebdd00cd2U,
  0x3e646208bd5fe96bU, 0x3ec23548bcbbc274U, 0xbd40e0e03ea3f37fU, 0x3e8c57253e47051dU,
  0x3e8006a23e17639aU, 0x3d96fa9a3e70da3eU, 0x3e7909a33e1d4834U, 0xbe44673c3e871b83U,
  0x3ed4b7c73e6c8b24U, 0x3dcd2f0c3daaa23dU, 0xbe17cec6bd2ddde3U, 0x3eb8fb023eac39b3U,
  0xbde28a833e91d8c1U, 0x3ba8ad61bea05a66U, 0x3e76787f3e5d87ecU, 0x3e9417a1bd40524eU,
  0xbe1182fcbcae7116U, 0xbe0e42ea3e8131f0U, 0x3ea20575bdca965eU, 0xbe2956b3be83bc65U,
  0x3e3836bb3ea15f81U, 0xbd300f6b3d9fe262U, 0xbe4a79f63d0f16fbU, 0x3ebdfb963e95e3b5U,
  0x3dbc799f3e9ad903U, 0xbd9b750ebdca5f80U, 0x3e37996a3edf9f30U, 0x3e8a25b9bdd2460fU,
  0x3e1ed0e9bd12930cU, 0xbd028aa73ec5128bU, 0xbe9db06abcbfc655U, 0x3e19b40d3ea61605U,
  0xbe83f77fbe42aac0U, 0x3ebc957f3dd0e58aU, 0x3e877da63e8b9157U, 0x3ed465a73e428cdcU,
  0xbe707d27be4f5fbdU, 0xbe4b3719bdcdf4b2U, 0x3e90f75a3ecaa4b7U, 0x3cfeeea23d6409c2U,
  0x3d2c638c3eaba031U, 0x3e88d9853e61fe2aU, 0x3dd9dd2bbe9cc581U, 0xbe5ef06b3e9df802U,
  0x3e8d4db3be3b17f0U, 0xbdff54da3bf494a3U, 0xbeaf85963ca13508U, 0xbd9f29f1be946633U,
  0x3d4f129cbe18be54U, 0x3ee1e7573ebaa0f1U, 0x3e4362313e9c2a06U, 0xbe0364cfbe35c156U,
  0x3e9a70bc3ea622b8U, 0xbe23c9cc3e04d50dU, 0xbe902c00bd511881U, 0x3d2fad373e43ac7eU,
  0x3e516f7d3ece8e2cU, 0xbe7734193e33b401U, 0xbd6a6aff3ef11777U, 0x3ece49163e4fe81dU,
  0xbdda6770be171165U, 0xbd4fd7713e035b9eU, 0xbe13902c3dcc0cf8U, 0xbe087d04be049f8eU,
  0x3e7c8af3bd93c27aU, 0xbe1f64b0bda11015U, 0x3d2ee5b93e377d5cU, 0xbd9c6ce0b9b786bdU,
  0x3eb3a171be3df1b8U, 0x3d99cd813db0179fU, 0x3e938a2bbe216435U, 0x3ece2fc6bd0a9865U,
  0xbcde40b43df3d1bcU, 0x3e7933be3e47b80aU, 0x3dbe15dfbd73b07cU, 0x3d43ba6dbde1036dU,
  0x3e3338bb3e8737f9U, 0x3e423c123e801c6cU, 0xbdc6b323bd19467cU, 0x3df0a3e0be18ccf8U,
  0xbc87d6353d93f8d8U, 0x3e416b5b3e55e4f9U, 0x3e2ebf25be240b2cU, 0x3dee849ebdcdd2baU,
  0xbe466b8b3e035601U, 0x3cdf782bbd933499U, 0xbe132a683edb2e88U, 0xbdb6fce93e53e0fcU,
  0x3eb42c5a3e666ddeU, 0xbe543a01bdcb17b3U, 0x3e97bb77bdf01659U, 0xbe30b4cd3b191acdU,
  0xbe63c7703d0e1724U, 0xbe2396afbe55d1c7U, 0x3e579ed3be3be287U, 0x3c31646dbd6be775U,
  0x3e1dd7e03dac863dU, 0x3d7a652bbd892551U, 0x3ea826d43ea53ac0U, 0x3d0473923d1ee778U,
  0x3e8f64553e36e778U, 0x3dcf3eccbbdacc1eU, 0x3ec8639a3e5f13e2U, 0x3d284f84bd978037U,
  0xbd7491003e4e22feU, 0x3ebdc2f13e0ee0ecU, 0xbc30dcf2bbc6a0f3U, 0x3df7e03fbd414dd0U,
  0x3e174efabe0115a7U, 0xbe631a84bd68f43eU, 0x3e6187be3e0ffdadU, 0xbe3c10373e05c6deU,
  0x3e0e963dbde49693U, 0x3c2242243d95cdbbU, 0xbe7e9675bd117d82U, 0x3e22d9923ec73042U,
  0xbe847d3d3e50dc4aU, 0x3e84d6233e0660b4U, 0x3eaf1d373d33b513U, 0x3e62ae903e05e533U,
  0x3d3137c4bda5cbd9U, 0xbceec542bc893ba9U, 0x3e757fdd3e2daf33U, 0xbe44c334beba7240U,
  0x3da6375b3e05d572U, 0x3c99e835be187aecU, 0xbe9300db3e24cde0U, 0x3e63e9b8bdd400ebU,
  0xbd5b19553c755571U, 0x3e0bb0933e035573U, 0xbdb3ceb23e079505U, 0x3e8d89ca3d714c78U,
  0x3ec16bf5be13bd13U, 0xbc12cfe93d80644eU, 0xbe69dd8a3b886423U, 0x3de80be93ba1b185U,
  0x3dc35fc23ea428afU, 0xbdad03e4bdf2acbeU, 0x3dcfb9f4bda2ff80U, 0x3e6391b9be3a95d4U,
  0x3de767d5be8891deU, 0x3ec6c4773e852999U, 0x3eb30812be48a42eU, 0xbe4196793e92c15fU,
  0xbe4fb86bbe9c28b7U, 0xbe327c77be422a82U, 0xbd358ebdbe442656U, 0xbe408b03bebae077U,
  0xbd74e626be68b608U, 0x3d8c65fbbeb7ce07U, 0xbdd98c93be9206b5U, 0x3ddbfe9cbe8aca9aU,
  0xbe88ce22bddaba92U, 0xbe7ca30fbe3f5f50U, 0xbe4efc7dbe167daaU, 0xbe5514e8bdaf0fa7U,
  0xbe5d4a653d99d150U, 0x3dabd4003d997f9aU, 0x3dde5997bd0054beU, 0x3e870e5fbe65503dU,
  0xba123a45be5d1798U, 0xbd2eedb73ec69aeaU, 0xbd748f5ebe6a286aU, 0x3bca115abe47a1a1U,
  0xbeb237a33d21ca78U, 0xbd25ea49bd83b57eU, 0xbe0e9293bd992127U, 0xbe8f46ebbdf4acbfU,
  0x3e3e66f6be4b6ffdU, 0xbcf238e23d7c76b7U, 0x3e0d54c83e12754eU, 0x3ebd72993e41e3efU,
  0xbd8fa0903e28600cU, 0xbe9d1f6dbe8526a7U, 0xbc8825a8bd56a183U, 0x3e48b7973a6659edU,
  0xbe7a5dd73e3c9caaU, 0xbe4660e3beb921dfU, 0xbded8d82be1961e8U, 0x3e8fd095be3c9179U,
  0x3e0090d93d64e687U, 0x3d8ec119be422204U, 0x3dceaed1be3d66fbU, 0xbd6829193e0a11f3U,
  0xbe5d174b3de77827U, 0xbd3bca103d1a3af8U, 0x3e523a8fbd59e496U, 0xbde5dc4bbd67e540U,
  0xbd5430bb3e3bca9cU, 0xbd1b58173e25d59dU, 0x3e48c5c63e7f5452U, 0x3c77d4fdbe2c371bU,
  0xbe63fd2c3bf83e0dU, 0x3d3b40003bcdf1a7U, 0x3d1f5e46bd139dfeU, 0xbdbf5fd13e863081U,
  0xbe79246c3d632b72U, 0xbe2c15dabb292c06U, 0x3ea175b9bd464546U, 0x3eb4ca5b3e21f1f7U,
  0x3c5dd3553e6d2b39U, 0x3ea7d2003eaf0a35U, 0xbe358185be6edd8cU, 0x3e3703773d6e8c73U,
  0xbe0ecec63e35cd71U, 0xbdbf45ec3e68830bU, 0xbebb50bfbea60e9eU, 0xbdad22a5be383e77U,
  0x3db31bd83e97df28U, 0x3ea94a6b3e1a549dU, 0x3e4ecf6d3dd5f592U, 0x3e198963bce75cd0U,
  0x3e68a42c3ddbccb5U, 0xbe78a8d1bd00fd65U, 0xbdaa3bfdbe223db8U, 0xbeb02b2c3e5d6b71U,
  0xbe2f450ebe8a702eU, 0x3e994036be84dfaaU, 0x3e0774ef3df45e29U, 0x3cc0fd733d60f736U,
  0x3e4c32f2bd64240dU, 0x3e511e403dc76af9U, 0xbe5d41e3be3d1550U, 0x3e29ef953e9d4cddU,
  0xbe8eb468be92117dU, 0xbd506d09beb56d78U, 0x3d1451143e6e0687U, 0xbe0f6e5f3c6b5f48U,
  0x3d02839c3eb9e633U, 0x3ec64aa83ec4c6a2U, 0xbd0c411f3dba7e24U, 0x3d653bcbbdfa51d8U,
  0xbdf0f38ebe8dce3fU, 0xbe405bc43dba7661U, 0xbe735ff0be762ea3U, 0xbe2f711ebe882d90U,
  0x3e4d25b9be1f1888U, 0x3e373a75bd373a93U, 0x3e4a533f384e7b0dU, 0xbdec05dbbe1e279cU,
  0xbdeacd083e9b5cb0U, 0x3e739c4b3d43c93bU, 0x3e4fb9bbbdabc551U, 0xbe157fe6bc5c21d7U,
  0xbd762f6abe77d076U, 0xbd3f06e33e92c52dU, 0x3d5133f9be2b93fcU, 0xbe04a1353e612e6aU,
  0x3daf2ad03dde2215U, 0x3e88d9e93e82b18bU, 0xbe6c17433dfd5e96U, 0x3e345b4bbe5a82deU,
  0xbe7bfae33deb8b20U, 0xbe4fb28ebe909ba8U, 0xbe84b6d63e965ffdU, 0xbe6c62133e6f4e2aU,
  0x3ec32a8d3e1b43d5U, 0x3e5402623e978f1dU, 0xbd8117e43e7fb409U, 0x3e9eb2983e9225b5U,
  0x3ddd3ed4be5004d7U, 0xbd93e4ecbe0e6f97U, 0xbe92fc7abc9a4dbcU, 0x3e8def53be80f315U,
  0xbe4ebc51be622968U, 0xbdf6c0453d29e185U, 0xbe0369523ce96f4bU, 0x3c9a9195be6af11dU,
  0x3d3743a9bddf515cU, 0x3e284a033e4d62dfU, 0xbdb411bbbe1c75c6U, 0xbe92ae54bda3fc0fU,
  0xbe5d1052be2c1d17U, 0x3e4549873e08e854U, 0x3e70093c3e65dd37U, 0xbd4001173e87fca9U,
  0x3e9f34e03e96fbc7U, 0x3e831aac3e6903f9U, 0x3e3c55513d1461d4U, 0x3e87b7cbbe4aed2fU,
  0x3dedbeabbea51397U, 0xbe94dc113d99bacbU, 0xbe97365b3d820a5dU, 0xbe8b11abbe0565abU,
  0xbdbafb393e16fb76U, 0x3ec197b8bd805f9aU, 0x3e3ba8e03d8b774fU, 0x3e8d80683de841d6U,
  0x3e0d0393be709b4eU, 0xbda9e9cebe53a17bU, 0x3d17bae2bd6898faU, 0xbd581ad1bdbfa315U,
  0xbe57ac2a3e6cab3fU, 0x3df3addf3d948836U, 0x3e3f39253e37c3f9U, 0x3ebe36bbbe8f98caU,
  0x3d9c97cbbe52a986U, 0xbe47bd973dc00eb9U, 0xbe5c9696bde0ac79U, 0xbdd936a0bde3dfc6U,
  0xbd291a05be7058e8U, 0x3db43702be2350b0U, 0xbd704e053e0d0303U, 0x3e152baebd45f6d2U,
  0x3da701b23e14ff4eU, 0x3e96b9a43e87493cU, 0x3e959d603e98ff33U, 0x3e0bedb8bd59772dU,
  0x3d1a48efbc9e44caU, 0xbe9c9bb03d5c5244U, 0xbec136393c9ad621U, 0xbe340ba83e845215U,
  0xbdf6d0e13e64d46bU, 0xbdd641c23e7a9715U, 0x3e35e894be5edc4fU, 0x3e0c25503c7de46eU,
  0x3e5af2983e49a69dU, 0x3d493a76be76ff78U, 0xbe373040be859872U, 0xbe2205f73e04f723U,
  0xbd963f6bbeb7fc4bU, 0xbb7d9e3abd571a55U, 0xbdbba68abe86e24cU, 0xbea1d0b4bd699181U,
  0xbd8a4bcf3e2d28fdU, 0x3da671243e2175e3U, 0x3e05ab1bbd425d69U, 0xbe77c56d3eadfc79U,
  0x3e03b15e3e227ee4U, 0xbe43d0bbbea9d95aU, 0x3e5bdf07bd26946eU, 0x3e73219cbe34db6eU,
  0x3eb081e0be8ddb9bU, 0xbea0fd023db8070dU, 0x3d87cbe5beabbb9cU, 0xbd1405bb3db3385dU,
  0x3dd690c6be838a83U, 0x3e679e2a3de4794eU, 0xbec3e5fb3d1f56c6U, 0xbe9d08ad3e0e4c91U,
  0xbe40ae353e4eb2c5U, 0xbce88de5bebd57b8U, 0x3e8280ca3e1c9a88U, 0x3e99d61abd9f6e5dU,
  0xbd1d6bc8bcb9d276U, 0xbda8949abe8efc5aU, 0xbd59e2b3bdc0b6b6U, 0xbd7cd5a6be79ef62U,
  0x3e964288bd8902daU, 0x3cc752873e7907cfU, 0x3e3790d53e959173U, 0xbe918d13be9bdcdaU,
  0xbe9985b23e6c3451U, 0x3e7f05203b3d7fcdU, 0x3d61ae0cbd20966aU, 0x3e2462c13e562874U,
  0xbe630e7b3e953645U, 0xbdfc19dabe7b23ebU, 0xbe984430bdca742aU, 0xbe9ad6a03ca47678U,
  0x3e514610bce1c10bU, 0x3e9cbb40be991e3bU, 0xbe06a491be6cc920U, 0xbe5f61b83e63b3afU,
  0x3e05858dbe08e0d4U, 0xbe9caaf63d05c15cU, 0x3def4beebe942874U, 0x3c971a043e23a39fU,
  0xbe9d44553d73834eU, 0xbdaa471d3e5d11d4U, 0xbcee5932be51088aU, 0xbe6db2703d9a7eabU,
  0xbe4a4430be34f437U, 0x3e1179ad3e802c78U, 0xbdbbd7933dcc9ed8U, 0xbe058bbd3dde0fb3U,
  0x3de1ff963e64aeb2U, 0x3e030dd1bdb7d709U, 0xbe8ad3d0be97bad0U, 0x3aa79b0abdc1f390U,
  0xbe8ae8593e77e2ddU, 0xbe94c329bd00c265U, 0xbd0ff2ce3e33f12eU, 0x3ca27b3d3e1da8a3U,
  0x3cf4bd96bda0131cU, 0x3bc0a60bbe8f4f87U, 0xbdfb85c3be789253U, 0x3da26aa53d9d3365U,
  0xbd196aa63e4d1b0eU, 0x3e9c3de43cd99ffaU, 0x3e2b48393e5705b5U, 0x3d044828be537035U,
  0x3cf34d0cbe8bb4b8U, 0xbe89b20d3e417294U, 0x3dd604753d3c0de8U, 0xbe6944efbe5a93c5U,
  0x3dd624a83c3918e7U, 0xbe8e2e55be1358e4U, 0xbe6edfb53da2dfddU, 0xbe40f628bd62fe67U,
  0xbd96bdcabe98ad88U, 0xbdf80e903e869f2fU, 0xbdded8f3be98db76U, 0x3d64bc61be61a526U,
  0xbda30446bd874086U, 0xbe158e5d3e583d8fU, 0xbddf8825be99c64fU, 0xbe8202b1be7a6ee4U,
  0x3e776ed43bce0668U, 0x3de775b33e96c1b9U, 0x3d721157bdceed85U, 0x3e7d8f743e6fc96aU,
  0xbe08cfadbacbcf2cU, 0xbde429cfbe1d0f86U, 0x3e91d818be596cf0U, 0xbe9708e7be80f51aU,
  0x3e7c63edbe01e5ffU, 0x3d084ee7be09a885U, 0x3cce525bbdf55fc7U, 0x3e4a68663d86b759U,
  0xbe82bd4ebe1fda6bU, 0x3bccc8093e9bb43dU, 0x3d1e2faa3df94fbbU, 0x3e31b49fbe4d5fd0U,
  0x3e24c1bebcb2d58fU, 0x3d6cab0f3da80f39U, 0x3e135c7b3e548df4U, 0xbe7628f23e7a9760U,
  0xbe6fea14bd4e8e65U, 0x3e363674be9c30b5U, 0xbdef18bf3e999f27U, 0x3e06f0b2be6be196U,
  0x3e021a9cbe6c5eb8U, 0xbe990bcf3db79a8fU, 0x3e46687bbd9f0a15U, 0x3d3c5d28be7270cbU,
  0xbdbe5cf43e128a01U, 0x3e002031bdcff09bU, 0xbe972befbdd678f3U, 0x3e6a8397be413a6aU,
  0xbdcd0ac0bdc107cdU, 0x3e9c1efe3e9747b3U, 0xbd8b5ab4be3bbe3bU, 0x3c274667bdd887ddU,
  0x3c1e104a3d1d9e28U, 0x3e4c48863e5e82e3U, 0xbdc104b33ce0dad0U, 0x3dc473b0be918120U,
  0xbe30cd063d973d58U, 0xbe8821373dffbb37U, 0x3e229999be4d7a10U, 0xbd721e263d89c4b4U,
  0xbcb0cf8ebe516d83U, 0x3e4f9f003d3fdbe3U, 0x3d6d8bd23e54cef4U, 0xbe7f6628be03a4cfU,
  0xbe7696fcbdb4a562U, 0x3e07cf16be320e29U, 0xbd29f662be5fdc99U, 0x3dad065a3d8e0bfeU,
  0xbdb7519f3e3e3b12U, 0xbe9e7fc0bdb61196U, 0xbe7b74d5bc9cab16U, 0x3e8803ea3d65ed4fU,
  0xbd0cd832be515d70U, 0xbdb1668f3e973298U, 0x3e513b543df4b37aU, 0x3e68b3793e85e968U,
  0x3e0122543e023f6cU, 0xbe9c58f8bde5a55cU, 0x3e981b043c8ee9c2U, 0x3e07b6f6be2fe3baU,
  0x3e0078fe3e6a1452U, 0xbc05e28dbd1dbc08U, 0xbb9c7bd0be6f21bcU, 0xbe688ec53bf1834aU,
  0xbe93d1a83d70712bU, 0x3e1122c3be39c2b7U, 0x3e7c0fd73d9382b6U, 0x3e973198bdddbe86U,
  0x3df47d48bdb29741U, 0x3bb686d63e065d23U, 0x3e8f89383e5ceca6U, 0x3e3bca8e3e4ebd8bU,
  0xbdc3c154bde39988U, 0x3df495f43e614a24U, 0x3e285e1bbdf2d547U, 0xbe8d5fa3bc8bcf6aU,
  0x3e3ada21be6e7627U, 0xbe4fc89bbe963dcbU, 0xbdbc610d3e50b929U, 0x3d31359e3e35b86cU,
  0x3cc6e9d2bd150c97U, 0xbe1f1d383e91c043U, 0x3e7be7f73bca07ddU, 0x3e8645ed3db1b76bU,
  0xbd92e16f3e8af8feU, 0xbd9a09c6be47e2f2U, 0xbdb039a4bddbef48U, 0xbe66d85e3d23cbddU,
  0x3e9abdb53dbb6e6bU, 0x3e8cf1a43e22e991U, 0xbe893514bd2f38e3U, 0xbe8ca11e3e7198b1U,
  0xbd1c893a3c66bae8U, 0xbe7b4deabda1562eU, 0xbb09df88be3b457aU, 0xbe1b27333e9043aaU,
  0xbde378d9bd98ea33U, 0x3e3725843e7c2968U, 0xbb0fe09f3dc54f41U, 0xbdb83039bcb17dd1U,
  0x3e30f4453d0509b4U, 0x3e979eccbd6eaad5U, 0xbe1cbd8cbe732655U, 0x3e9b87673dfe890cU,
  0x3e54f492be258a0cU, 0xbe8e465bbe96b961U, 0xbe901d3fbe3eda4bU, 0xbe1667f13d2194a3U,
  0xbe0f72efbe4e065cU, 0xbe7333f7bdb77cb7U, 0x3e7c042c3e91b995U, 0xbe6e0362be55090aU,
  0xbe6e3d7abe7bee31U, 0x3e3ed13cbe1c635eU, 0x3e3288763e13c83fU, 0xbe07077b3e8627b3U,
  0x3df8d06ebe6f8788U, 0xbdc56cc2bd53f6e6U, 0x3da96d9fbe99569cU, 0x3d7de4f4bb2eaaafU,
  0x3d85defebe9c034aU, 0xbdb29f583e7468aaU, 0x3e306e50be58e917U, 0xbe7b4dccbe543dfeU,
  0xbdba2a41bda0e2e3U, 0x3e9014273e9ba81bU, 0xbe6d9fc73e8c5888U, 0x3e46d2d3be7cf783U,
  0x3de48d30ba93daffU, 0x3e86774ebe369929U, 0xbe8597643e6444dfU, 0x3dbca1bc3de6cadbU,
  0x3e9b0f8cbe0bf64cU, 0x3d0cc9763db440e8U, 0xbe5981fd3e903d19U, 0xbd0d42373e8f4914U,
  0xbcc74e313e0c0563U, 0xbe72ed2fbe3436deU, 0x3d3db66abd55b18aU, 0xbc6e78503d4c68e8U,
  0xbc86ed07be8a8b4aU, 0xbe94b246bda0f5aaU, 0x3e6f291cbe071883U, 0x3e2f791dbd57fa61U,
  0xbe812520bdd59f03U, 0x3e917ebc3df7e273U, 0xbd96525f3e739631U, 0xbe71256ebdd23205U,
  0x3eb682f13ecee598U, 0xbe36c077bb685076U, 0xbe56a179be06934aU, 0x3d550447be7d58ebU,
  0xbddabdf6bd925145U, 0x3e49bfa13daf3b35U, 0x3db575ac3e2b1598U, 0x3e3671653e148011U,
  0xbe496b3d3e175e16U, 0x3e5cab7c3da468f7U, 0x3d97d0163e012bd1U, 0x3e8f31c63e91370dU,
  0xbc7a759fbd5dfb80U, 0x3e859c3b3e597a87U, 0xbdb9fb43bd29be4dU, 0xbe3bea463c6a0511U,
  0x3d13d6b63e4eb6b6U, 0x3e6e117ebde05dcbU, 0x3ea7350fbe7abbbfU, 0x3e0b24733e70f96cU,
  0xbca3d9ef3e347962U, 0x3ec15b9f3d24c898U, 0xbdbf19113db626c2U, 0x3db2ad57be4556e1U,
  0x3e5eef71be3d41b8U, 0x3e16f283be34ef33U, 0xbdf4c262bd6fdb5aU, 0x3d6a05573e92da21U,
  0xbe17ee2b3dd74d54U, 0x3ef02f973e96f980U, 0x3dee66c73d359f6eU, 0xbe1ea11e3dbbb2e9U,
  0x3e2169fcbe89f52fU, 0x3d23e2af3d1bd6ceU, 0x3e5c4bbf3dc1d3d2U, 0x3dbeade3bcd033cfU,
  0xbe9ce26ebe8a02f6U, 0x3e9c6e323e0a9a57U, 0x3d8233783e8050baU, 0xbdc9048e3ed8adf1U,
  0x3ec6b53f3e905eacU, 0x3ebea6b93c976a3cU, 0x3e65da14be3191e4U, 0xbb84c03f3e6d74e9U,
  0x3e0466383e5cb754U, 0x3e5aae1fbd1c1be4U, 0xbe1aaa54be2fe51dU, 0xbe55044bbdd56b2fU,
  0x3e999625bdfb3394U, 0x3ea503d83e729908U, 0x3dd2db293e4dbfa5U, 0x3e9afccabe000cfeU,
  0xbd0af3fe3dc60e77U, 0x3e9df7653c8840c5U, 0xbe6c2f483d95c88cU, 0xbd2c0e093e9eae16U,
  0x3e669942be4bc182U, 0x3eb9ced3bd9b3731U, 0x3e14c0ec3ce27b42U, 0xbd43f9aa3e8045a8U,
  0xbda1b1083d0e6d51U, 0x3eaba7c3be002ae7U, 0xbdb5bdd1be296fecU, 0xbd9203923d4f3cfbU,
  0xbe7b8e443d519d21U, 0x3d45349e3deb9dafU, 0x3eb20849ba4e9908U, 0x3e4bd7643b229845U,
  0x3d56067bbdaece58U, 0x3ec3527dbdc4832bU, 0x3ea8b860bdcf791cU, 0x3dbf2e673e583ad6U,
  0x3d6a3f743e85b66cU, 0xbd6abd4e3d51f618U, 0xbe8d0add3d13aa1dU, 0x3cc58d13bbb1c5bfU,
  0x3edfad5abd4a72b3U, 0x3e70004d3eb368cfU, 0x3e768eefbce140c2U, 0x3e56098ebdafc3ceU,
  0x3ede46ee3e3477eaU, 0xbd805c273ec5eb1aU, 0xbe67eeae3da76d84U, 0x3eaaf171bcd1eee1U,
  0x3e3e05913e9ebce4U, 0x3d094c6fbe141234U, 0x3edda9593e4acb22U, 0xbdbeebb03e970387U,
  0x3e1289d13e24b2b5U, 0x3e7b4b253e456c6eU, 0xbdd7d9543ddec939U, 0xbe78d0853d297e0cU,
  0xbe53366f3ea23dd9U, 0xbe20d4d2bd12aa72U, 0x3e5e56633ea9413bU, 0x3ebbceb53de2cea6U,
  0x3e5612843eb7c684U, 0x3e5e07b73df36e58U, 0xbdd6b3d3bd6d2583U, 0x3c1abed33e2e269fU,
  0xbdbc68e0bdcd6027U, 0x3e39e5353e57a94aU, 0x3dea3eab3e386e7eU, 0x3d8d02f0be59724eU,
  0x3e88d524bd28affeU, 0x3e5acaf2be0eceb7U, 0x3e837f3f3cd8dbf8U, 0x3d414b2f3e0ce01fU,
  0x3e482f233ed3a359U, 0x3eaa56cf3ddc6821U, 0x3e1209bcbd913e22U, 0xbd97d275be968600U,
  0xbd40e7fcbb9cb617U, 0x3ea1f9893dd5d43fU, 0x3de5d8cdbe8a7723U, 0xbde2f4f6bde667abU,
  0x3ea78c8d3e67ca86U, 0xbe417db23ed484a7U, 0xbdb93ec23e0c3a4aU, 0x3e39d3a3bdf3cd60U,
  0x3e6bf95abe5c104aU, 0x3dfee47c3de7c1ddU, 0x3da970bebe3dd9e5U, 0x3e050d2cbe4eb0bfU,
  0x3e33bb6c3e0fa957U, 0xbc0ee638bde6056fU, 0x3dfbcee13ebf3c97U, 0x3e4cf085bcc411e4U,
  0x3e8330cdbe303bd2U, 0x3ea3173abdbadf15U, 0xbe43e7cc3d601f17U, 0xbdb315dcbe8dea68U,
  0xbde56b673da2e112U, 0x3ea49a01be387e73U, 0xbd0b93643da7e78cU, 0x3ea626983e8af37eU,
  0xbe4ab2d43d8144b3U, 0xbd52b4983e770be2U, 0xbe1fb61f3eb192ecU, 0xbc6218e7bbab156aU,
  0xbbdb1b18be6d909dU, 0xbe4d2cbbbde4a2f4U, 0x3dcf7a4f3e16e6c2U, 0x3e0602babe5a17e3U,
  0xbe83497f3e80c13fU, 0x3ec9117fbe5640feU, 0x3d856f663ddad522U, 0x3eabe6023e97ab67U,
  0x3ebe960f3e6dc5aeU, 0xbe0df09d3c393b96U, 0x3e6c30ddbe5e05c4U, 0x3e2ae9debe06004aU,
  0x3ea9f259be456b9aU, 0x3e999961bd4248f9U, 0x3e7e303f3e3c97c4U, 0x3e56b654be0e0f4dU,
  0xbe3188a23daeaa96U, 0xbdbc434e3eca0c32U, 0xbdc99a95bdc843ebU, 0x3d812eeb3e2faaffU,
  0x3cdb8331bc50919fU, 0xbe65c81c3e936e9dU, 0xbe62559dbe5a2b8bU, 0x3d9fa1cf3e5e41e4U,
  0xbd98b79a3d1ea9caU, 0x3e5716803d4a99f8U, 0x3de9a3a9bdfc1a4eU, 0xbd61ab063ec6189fU,
  0xbd64f6e53ea34a90U, 0x3cc02e5f3d8e27c9U, 0xbd7da343bd16e299U, 0x3c8218633e9278e4U,
  0x3e6b75e43e38c741U, 0x3e827fe73e18ab23U, 0xbe6345dc3e9308d8U, 0x3e47d368bd484f93U,
  0xbc8daabd3eb349d6U, 0x3de76c2a3c804d44U, 0x3e95935b3e59d2b8U, 0x3ddf610bbe3bcb48U,
  0xbe1f56b63d533aa5U, 0x3e49e8633e963456U, 0x3e97b0ed3e9de3bfU, 0xbe9ff314be7ecc69U,
  0x3e19be30be55a1d6U, 0xbeb2f3f7be8946f3U, 0xbe44ee2c3dc12d5eU, 0xbe069f38bd5a25e9U,
  0xbeb85e0bbe83cea5U, 0xbea90bc13dad8186U, 0xbd087895be37f6b5U, 0xbe6d8e13be89a500U,
  0xbea66009bd22ebc8U, 0x3dee21a43d326da7U, 0xbceaacc2be9e0693U, 0xbe075163be55f6fcU,
  0xbeeb845ebed15b5cU, 0xbe50c6dbbd2a5e14U, 0xbd8d07b83d652e52U, 0xbe6ede04be60124bU,
  0x3e7c1a9cbe9fb662U, 0xbe2df6923e7c0d65U, 0x3e4efda33e88ffafU, 0x3e84cf67bd0543caU,
  0x3dc03fc2bc7df11bU, 0xbee09cd23c5f8948U, 0x3de75628bd696ccfU, 0xbe505daf3c37d55cU,
  0x3e01b15d3db3a3cfU, 0xbee82942becae6b0U, 0xbeee017f3d4edddfU, 0x3c6cef70bd9e1bb2U,
  0x3e9687bc3e336697U, 0xbdad27183e58e8dfU, 0xbcf7a10f3dc7cffeU, 0x3a1fd6f83cbe51d0U,
  0xbc8a0037be4d3417U, 0x3daec31dbe030dd4U, 0xbcfaed003edd0204U, 0xbed582c8be1efd9aU,
  0x3d40bcbcbec005feU, 0xbe827075bea8c3acU, 0x3d2ffc74be31bb61U, 0x3e3554a7bd3d8cd7U,
  0x3de08a313dbaa960U, 0xbe7455ad3dad7081U, 0xbe27cd953e93c89aU, 0xbd9fa963be2db7e0U,
  0x3e6937b5bd57bf83U, 0xbdf5bf0d3c53b0ceU, 0xbef104b2be41a26fU, 0xbc75e5c1bed93461U,
  0xbe43f68cbe806b2eU, 0xbe93c45a3dc8060eU, 0xbee147be3c372777U, 0x3e2a51223cf2d048U,
  0x3eb1ef2c3d837b8cU, 0x3c7ebcaa3e998842U, 0x3ed70c42bcb6031bU, 0x3d4153dcbe84a8fdU,
  0xbdad979b3d67e88dU, 0xbe01446dbd9abd8dU, 0x3ce46039bec5bec9U, 0xbe98e1cbbe9e2c31U,
  0xbe3cd05ebdc3a678U, 0x3ecb965ebe5c7a52U, 0x3c0f025bbddb24a1U, 0x3ec516b9bd2258f0U,
  0x3ebab4c53e87527eU, 0xbe0b6f33be195e36U, 0xbea94ccebe801465U, 0x3d279334be6e815aU,
  0xbd6a2647be0d2abeU, 0xbe43c3fcbe19e704U, 0xbda292c43e1be1bcU, 0xbd8534f83e26508fU,
  0x3d6d05573e731f6dU, 0x3e0719813e9d0d67U, 0xbdfc6cf7bd67b96dU, 0x3ee3dbfd3c6f8cffU,
  0x3e34f56f3d23e977U, 0x3bed957e3dfe85b6U, 0xbd2a50aebdce6400U, 0x3e6b4156be7e3817U,
  0xbe8355fbbdd1a360U, 0x3de8ea1cbe886572U, 0x3f130b6c3ee0334dU, 0x3d099b343ce813c8U,
  0x3e2e225c3ee2f00bU, 0x3dc6c7093ea11b21U, 0x3dcf5f5dbd9c29e7U, 0xbe602d0a3de120eaU,
  0xbe30ed3b3dae24f7U, 0xbd9d33d1be0f8713U, 0xbe1b786e3e081de0U, 0x3ed57daf3df3bac1U,
  0x3ed5fd4c3d94e6fdU, 0x3ebe88363ec6f40aU, 0x3df823763cc3b752U, 0x3dca457f3edf9906U,
  0x3eadac8f3e89069eU, 0xbdbf7a74be533578U, 0xbe22920dbeb0095cU, 0xbe44e50abe4f598eU,
  0xbb74ed413bca18edU, 0x3d2a89a73e777177U, 0x3da60070be01a9daU, 0x3f00d6ca3e92f71bU,
  0xbe37a07fbdd5fc67U, 0x3edd41cf3d6c1d14U, 0xbe4bbff5bd3a647fU, 0xbe4f985f3e7aee6bU,
  0xbeb8cdf3be4e1d0eU, 0xbe7fe5f3bdc5c865U, 0xbea2254f3d980be3U, 0x3dfbd46fbeadc9b6U,
  0x3e3bb96f3e782bc5U, 0xbd49bda63e5a3061U, 0x3d925df13ea00599U, 0x3ed89c4f3eaa4399U,
  0x3e8298afbd9ceef7U, 0x3e070b9d3df86a79U, 0xbdc4a839bd80d4c6U, 0xbe6783eebc59cb56U,
  0x3c343637be43b347U, 0x3ea280ed3e84bc54U, 0x3e70b5013e8f0c1aU, 0x3c538b3b3ea9ebceU,
  0xbda66b9c3e895fb7U, 0x3e7f7b633bb6f792U, 0xbd4729d73e8a7a37U, 0x3eccb9753e45b21cU,
  0x3e2cb641beb6e0cfU, 0xbe5508d83e9b488bU, 0x3b0ade5fbeb32312U, 0x3ebf58693df46a0dU,
  0xbdb2b460be50242dU, 0x3ee05b333e76755eU, 0x3e75f20b3ddc7a0dU, 0x3d9f8b723e27ff58U,
  0x3e80f62fbdb5829fU, 0xbdb9c5f7be018c80U, 0xbe16c158be898479U, 0x3dd0061cbe918bc9U,
  0x3dcf0e1a3ddfcf57U, 0x3ecf40f53dde697eU, 0x3ee235ef3d2c39beU, 0x3ef5b1543cb97d31U,
  0x3edc0d273dc61725U, 0x3f0a7d513d589a0dU, 0x3e1bff3f3e7dbc88U, 0xbe99c793bec026d9U,
  0x3e5af051bd6b76a1U, 0xbc9681e4bc6bb5dcU, 0xbdd402d5bed8e861U, 0x3e8cdf913e7c3cfcU,
  0x3ecd6872bd228833U, 0x3ec5db3b3ea5caefU, 0xbab4f0943e81ab25U, 0x3ea13a6ebc388b35U,
  0xbea86ee9be7b1db7U, 0xbdb1e685bea81abfU, 0x3e80d9fbbd714221U, 0xbe86c8f8be290c02U,
  0xbe62535d3e2e5b48U, 0x3e9743793e89c942U, 0x3c9860c93da71748U, 0x3eb01b633e0cbf0bU,
  0x3ea76eac3d791837U, 0xbe058874bdb2d64cU, 0xbe9006e93d9c27e7U, 0xbec030f23e9e8772U,
  0xbe0a80eebcc28164U, 0xbe4558ccbdc6d929U, 0xbe742436be67dea8U, 0xbed628563d4e1f52U,
  0xbd5184de3e18bf44U, 0xbe29a51a3eaef584U, 0x3ea9732b3e68514cU, 0x3cc3ed17be1f5a52U,
  0xbd4b4c583e2eeb70U, 0x3ccdf5ac3eddbd88U, 0x3e59d90fbd455762U, 0x3dd4bd723d1dafe4U,
  0xbed9350c3e48bb88U, 0xbea718b3bc46f340U, 0xbe1e3fa1beba5683U, 0x3e3791c33dcd0810U,
  0x3dfa7d163d5da063U, 0xbe6fd166bec9f4e1U, 0xbe0079e33e33877fU, 0x3c60b21a3ec7b706U,
  0xbcecf99c3d6aa453U, 0x3e0a0c8bbe99c4e8U, 0xbecca1c9bc5c46b8U, 0xbcf2c7243d1a9440U,
  0xbd3c2ad63d07ea95U, 0xbee2443e3dcbb79dU, 0xbe4f41cfbe7c2b8fU, 0xbec852b6be732487U,
  0xbe0bc7edbe389ea1U, 0x3dac2422bdee0f2aU, 0xbe81d2b43e54ff38U, 0x3e85969fbe86c771U,
  0xbe0e72e5be5c27baU, 0xbc4e27c53e9240d5U, 0x3e53a76cbe2d5281U, 0x3e5908f83e290f5fU,
  0xbe380a013e5d6eb3U, 0xbe281347bca825e5U, 0xbe93d2d4bdc9b1a4U, 0xbe7db75bbe84e965U,
  0xbea904d43d8dbcb0U, 0xbe539962bd337756U, 0xbdc1b0af3e9b134cU, 0xbea2723fbd9dc7c5U,
  0xbd881d173e4066f0U, 0xbead06793e1b5956U, 0x3e106b8d3e82ce96U, 0x3e1ce6b13e89039cU,
  0xbe33332a3ea8ce4dU, 0xbd3b3eb1be92ff75U, 0x3e166a18bea605c9U, 0x3e900e7dbc818adfU,
  0x3d6652f6be5c5970U, 0xbe855df4bdd2fde7U, 0x3dcd265d3dfd3476U, 0xbde177bd3e9eb87dU,
  0xbe9a64b0be6270cfU, 0x3da3f2d53d991c34U, 0xbe9c50cbbe90d1ebU, 0x3de02639bc7e2160U,
  0x3d732bfcbe8e0586U, 0xbe5173843e132720U, 0xbe9a927b3e43c7ebU, 0x3d48a52c3dd9187dU,
  0xbdde5e863de4b8c0U, 0x3e909c2cbe91119cU, 0x3e50ebadbd7d439cU, 0xbdbb3465be9175afU,
  0xbe0a7a933e7158a8U, 0xbe87e5cd3e56111bU, 0xbeac11763e747006U, 0xbe0f41173d87140eU,
  0x3e38fef9bc7985f8U, 0xbe156b1b3e2147efU, 0xbe83251e3e8eca02U, 0xbdacecbd3dc7ec99U,
  0x3cd88ecabe584c0eU, 0x3d9df836bd900e2cU, 0x3ea79d68be62d0c9U, 0x3e6ef30cbe1a7903U,
  0xbd14699abe145629U, 0x3d00eb2c3dc502beU, 0xbe95ccf3bd669e3bU, 0x3cebc960bd93db5aU,
  0xbe2265123d97644cU, 0x3e92d50b3cfc8ed9U, 0xbbba2f8b3dd5ce77U, 0xbe9208bd3e0a800eU,
  0xbd1857d53dadd7fdU, 0x3e96799a3d2856a0U, 0xbe352f80be07fe89U, 0x3d37b507be82bc81U,
  0x3e95855a3e0c68b2U, 0xbe8883d9be6fdc64U, 0xbe08a99a3e7779c0U, 0x3da4591f3d8ff9b0U,
  0xbe9d5ed2be8cdf20U, 0x3d1b5b6f3e98f139U, 0xbe65c887be99f9c2U, 0xbe6063d2bd2bf4aaU,
  0xbd9eb7c63de02860U, 0x3e31c37cbeadfceaU, 0x3e20557d3bd80c52U, 0x3e1003cebe88fedfU,
  0xbdb79e32bdce1924U, 0xbe792cb93ea0633eU, 0x3e2e169abd81ccecU, 0x3dddc1a1be63d1edU,
  0xbd41b5193d264ebeU, 0xbe09a2803d6f92aaU, 0x3b7a8f1d3e0bc0c3U, 0xbe14945f3dc6d603U,
  0x3e83e01fbea86a00U, 0xbeabc6ec3e61fbdfU, 0x3e4f14ef3b37be65U, 0xbe2d70ffbceca8ecU,
  0xbdd302fdbe90fcedU, 0xbd5aea2a3e14e95aU, 0xbde7691abe9392a0U, 0x3e82b1d83e875382U,
  0x3c52addebe12da86U, 0x3e82c2b4be75d51cU, 0xbd2cd7f93e547ffaU, 0x3e30349f3d4aacc5U,
  0x3e50b696be77cf60U, 0xbe040ea53d7933d7U, 0xbe60d0e13e1e1e83U, 0x3e6b6da13e7fd170U,
  0x3e64d7cebd8c00b7U, 0xbddc20b13df36724U, 0x3d048b63be485435U, 0x3e77ad0abdb7143eU,
  0xbea460453de76ca2U, 0xbd3627273e4b50cbU, 0xbd0e7015be3b9e3bU, 0x3e19e3cdbe659ddfU,
  0x3e8a3a953e946442U, 0xbe2712fd3e367c61U, 0x3d144b81be914892U, 0xbe3ba9b93e4bc19cU,
  0xbea9b8323e9fb894U, 0x3d0ad889be070b23U, 0x3e930aee3e74393dU, 0xbe0ec755be82e60dU,
  0xbe2cba7bbde389bfU, 0x3d84e9dd3cd79851U, 0x3e8cfe523dbb144bU, 0xbe71dc93bdbb422eU,
  0x3e4ce6f1bd59b055U, 0x3de991b3be76c6f7U, 0x3d3faf8f3e88e3d1U, 0x3ea38adfbe733246U,
  0xbdb0ff1bbe6872c0U, 0xbda7246dbea9400eU, 0x3e88c934be8212d5U, 0xbe33bfed3d814f2eU,
  0x3df60fe13e795f94U, 0xbd60cdf43e7c013fU, 0x3eb677f43e5db5a4U, 0xbe6784cf3e231347U,
  0xbe3f07b33e6f395aU, 0x3c4f6971be9d98c0U, 0x3e729a58be629335U, 0x3e9702823e3ff73bU,
  0x3d6551a8be6994fdU, 0x3e9933603e92d0d4U, 0xbddbe272be81028aU, 0xbe68a7473e6b7e7bU,
  0x3eaf10a63d400f80U, 0xbe0bc1233d8a11adU, 0xbe6b31433df38ad9U, 0x3d305615bd9e2278U,
  0x3e168fbabdcb2d36U, 0xbe5bed7b3ea38ad4U, 0x3d84e3d23b014b7eU, 0x3e8b9b7dbda22459U,
  0x3e4178c53bd7c8c1U, 0x3ea336d73c6f3251U, 0x3e836500bd9436c2U, 0x3dc2696e3ea6d16fU,
  0x3dbe0f9c3e7d560eU, 0xbe2a32a7bd7d3470U, 0x3e89d42fbe7b0430U, 0xba8662c3be2ff2c0U,
  0xbd58479a3e712680U, 0x3df6e62d3e7295b3U, 0xbe23035abea5c420U, 0x3ab45aae3d892c9dU,
  0x3e4ed7a9be8c8c00U, 0x3e4278be3e4370c5U, 0xbe16d5fdbeb1276fU, 0x3cd945e33e8c7e0dU,
  0xbdaa09873ea84d85U, 0xbe223771bd8fb47eU, 0x3de2c02ebe267d81U, 0xbdc06b343db11a42U,
  0xbe87888fbe7ea8dfU, 0x3e87bb05be85bf05U, 0x3e7941e53e898596U, 0xbe1afcacbe5b100fU,
  0xbea9ec12be01b28aU, 0xbd4fc1c7be890a72U, 0x3e33a18b3daa6370U, 0xbcc786c5bea5e09eU,
  0xbe80539ebe933aefU, 0x3d73b947bd1113c7U, 0xbdc6975abbe42455U, 0x3de42d24bd93268dU,
  0x3d4996d83e159d1aU, 0xbea4d62d3e39b793U, 0x3d9ee7d83d9422e2U, 0xbe9943173dbce7aeU,
  0x3e3d89c1be5259d9U, 0xbe710c3cbe820ecfU, 0xbe43b48cbdd5f196U, 0xbd4021113ea1dfeaU,
  0x3e9dcaef3ea1c0fdU, 0x3e88a3b43ea736eaU, 0xbe82a656be5d140dU, 0x3d0951f83e99d016U,
  0xbe973ba63e8d6959U, 0x3e3b437bbdb1fcfeU, 0xbe4ebe5ebe755b17U, 0x3e8e16753a9b4a6aU,
  0xbe56504fbe9f838dU, 0xbe8afdb0be523b38U, 0xbe901951be526850U, 0x3e6291cfbe8622d0U,
  0xbe005976be5e7406U, 0xbdeec5293dae50d0U, 0xbe719643be53a527U, 0x3e4798e93e16f6c8U,
  0xbe98e7d23c3dc3e0U, 0xbe2412c6be50fc6cU, 0x3e432db8bd1a7a35U, 0xbd3028773d8e9955U,
  0x3e2e72cebd71e1f1U, 0xbd4ab958be7b33b2U, 0x3eaaf1cdbb75e059U, 0x3ddb3586be53d10dU,
  0x3e55e3893d6adaa2U, 0xbddbe9bbbd2c7868U, 0x3e6cb24e3e0fd1daU, 0xbe1e8bbf3e3567c7U,
  0xbda9b3cebe152c2aU, 0xbbe3c31b3dbcf017U, 0x3e2952ebbe78254aU, 0xbe2ac5193c3571c0U,
  0x3e854913be99ae25U, 0xbe43cb2f3e9cc528U, 0x3e4ffa62be77ec53U, 0x3d88f8d9be0bb543U,
  0xbe8426dd3e508df7U, 0xbe698584be05b8aaU, 0x3d767aeabe25c279U, 0x3e608eab3e80516aU,
  0x3ea766bc3ebab513U, 0x3ddca2f63c87ef2aU, 0xbea8feee3e3f5f96U, 0xbe502a61be3d705cU,
  0x3eaad40b3e1ce81fU, 0x3ebae1233eca5f12U, 0xbd8a05a83e49ece1U, 0x3e5c1532bdec92f6U,
  0xbe2ed4cc3ea4a48aU, 0x3ebfa9d33eedcaf8U, 0x3e7f3a2c3e08cd46U, 0x3e1e7cf9bc5c17ebU,
  0xbe462bc2be8bba20U, 0xbebcb88b3e31c8ffU, 0xbd9f6b94be466abbU, 0xbe12534c3e9b835cU,
  0x3dad108a3d801816U, 0xbe109d8cbe6502efU, 0xbe09d3963dc82e46U, 0x3ee21dd63edeba5eU,
  0x3d0f102a3e8d8a9eU, 0xbe01f6fa3ebae0e7U, 0x3e6d63223e5796b3U, 0x3e26cf2ebe2d4e76U,
  0x3eaeacfa3dd0da60U, 0x3cf473bebe0e4a01U, 0xbd0e6f2dbd89a9a8U, 0x3e49249f3eada41aU,
  0x3e7d62d9bdb53ab3U, 0x3f23cc953edc44dcU, 0x3ec1b0d83e8d3ac4U, 0xbe52bbdb3c478931U,
  0xbe589695be61934dU, 0xbe8f401abdaf40c1U, 0xbdcb349b3ddda568U, 0x3dee05663e2a7f3eU,
  0x3da38ad03e1b1ca9U, 0xbd8638193de6339eU, 0x3e06b7033ebce2a6U, 0x3ef34be03f09a8bfU,
  0x3e7858f43f1cd881U, 0x3d5c26343e2eb4fbU, 0x3e9896b93e25887bU, 0xbe84f8293c86608fU,
  0xbe5258f63dec7e01U, 0xbe1ee8babe2cb5e9U, 0x3d7dfd7a3e5daf18U, 0x3ead80d13d6f1ebbU,
  0x3e5e1c1fbce529ddU, 0x3eb5ec0abc848e3fU, 0x3cc003ecbd02942fU, 0x3e19dcff3e9677cbU,
  0x3eb5790c3e86d8f7U, 0x3eb2b1de3d98acdfU, 0x3e60d175be81a4e2U, 0x3e2ef975bde64ff4U,
  0x3e3c1e443d4dbbdcU, 0x3cc388603ecf4cb1U, 0x3f1e9c203eadc0c9U, 0x3ebb19323f177ccfU,
  0x3d7490e83e5bdd50U, 0x3e89f1b43dd86227U, 0x3dc968df3eeee758U, 0xbe5f71fa3eb7d20cU,
  0x3e748d4b3df5da5fU, 0xbe1342203dfb66a2U, 0xbe7da3f1be4f9ad2U, 0x3e54f15abe006196U,
  0x3ec261553dcd7b46U, 0x3ebfad1b3e77c102U, 0x3e9afb083e1cfb43U, 0x3ef3cf923ddac943U,
  0x3e714af53ec7794fU, 0xbdbb68523e74eb57U, 0x3e6291e13d0ad511U, 0x3e23e0acbd812753U,
  0x3e31eed23d20c249U, 0x3ecc89003da41cbdU, 0x3f02dbb93f0f139eU, 0x3ef99c383df55e3aU,
  0x3e9f53763e5fa541U, 0x3e9a2f0e3f04598cU, 0xbd5a9f9f3efc7b00U, 0xbcc739c73ebefe56U,
  0xbe970a253d14154aU, 0xbca4f446be9957a7U, 0xbe0abbe53dc3b679U, 0xbd887f7bbcf92282U,
  0x3e9717eabd14fa62U, 0x3f2a7ce43f36b5c9U, 0x3ed86e433f246862U, 0x3ed1c1f53e9e510bU,
  0x3e9943fe3f0e45a5U, 0x3db496f13edc134cU, 0xbea78ad33d6361a6U, 0xbd9bdcfb3e047cd4U,
  0x3d7ece98be88383bU, 0x3ea9f865be08f01cU, 0x3ed3041c3e2d7209U, 0x3eed92e13d1885f5U,
  0x3e0200b03d26f2b5U, 0x3ec2357c3e342492U, 0x3d2146d03da0baafU, 0x3e0ab2923e8478fbU,
  0xbde8f47b3cc347ceU, 0x3d609e49be0ac5bcU, 0xbe7b8ff33e639f3fU, 0x3ec76c39bdc33f38U,
  0x3e9e16713ee4ab56U, 0x3ea31d653c40019aU, 0x3e316ad73f26ffaaU, 0x3ec65b813ef27712U,
  0x3eb937313e232b02U, 0x3d1c3f103e4b6468U, 0xbdae0074bd1ff38cU, 0x3dc9f383bd42b0ffU,
  0x3c7ab397be4ed6a5U, 0xbd60afa43eb01841U, 0x3dcf0f613e9b3ad8U, 0x3e8bcdfa3e305f9aU,
  0x3e86b9393dc86b88U, 0x3f1d16e53e93d629U, 0x3ef21da73df863deU, 0x3e942beb3ec574c8U,
  0x3bc4132abd928b2dU, 0x3ebc0437bcde6ff9U, 0x3e7b61f73eb6c4f2U, 0xbd5817353d54c7f1U,
  0x3eadc3693e9d26ebU, 0x3e921a243f290f7dU, 0x3dd274793e54cbfaU, 0x3e969d8f3e6e47e3U,
  0x3e31f3e83d9a68b9U, 0xbde695bbbdd51cbcU, 0xbd8b34f73cb78d7cU, 0x3dba633d3dd2f13dU,
  0x3e08aac4be2a664bU, 0x3e163bf13e9c94f6U, 0x3dce21443ef64957U, 0x3efdbf593e9d0239U,
  0x3f10d0973ee886abU, 0x3ec1e5d93ad6d670U, 0x3df1e8cd3f042987U, 0xbde74cc83ea224deU,
  0xbe6bc943be7d4fe9U, 0xbe138bbabc7de0f7U, 0x3c8b3998be76f4f9U, 0x3ea7c8143e4a0008U,
  0x3ec519c13eb91e5aU, 0xbca7d5193ecd180aU, 0xbda34eb53e55344bU, 0x3e788dcf3c90c732U,
  0x3eb467063e0b1d2bU, 0x3b1548633eaa4100U, 0x3d07a7c3be4a4933U, 0x3c822568be5a37acU,
  0xbe9083503de95ca5U, 0x3e46bd833d03ee64U, 0xbde6f3033e8806b2U, 0x3e9c2a7a3e1d91b5U,
  0x3e905bd63e9388bfU, 0x3e04806ebd9e97f1U, 0x3eb6cc943e9b3dabU, 0x3e59b7073f0138d4U,
  0xbe4ef0d7be5b1c1eU, 0x3e757e9a3e94fbf5U, 0x3ea358063df39f90U, 0xbe384e513e93af25U,
  0xbdccfb303e8d6965U, 0x3e23ffb6bd86f73eU, 0x3e392bae3e5cd12fU, 0x3e926699be72a2bcU,
  0xbe40f49f3ea8b9c6U, 0xbcc830f6bc675d79U, 0xbd52275abdf1936fU, 0x3e28a72dbe727c77U,
  0xbe5368563d051bf5U, 0xbe3a7778be38090eU, 0xbcac4ec2be821b31U, 0xbe8eecc5be120510U,
  0xbe8846223c3eb5b3U, 0xbe8175e9be85dfb7U, 0x3e60328cbe9ce1feU, 0xbe1073523e7e126dU,
  0xbd0ed956bdf534f2U, 0xbdf84ba93d334f21U, 0xbdb533943d836597U, 0xbc3842ba3e825c13U,
  0xbe9bc6d03ccb4f3fU, 0xbe4c439ebde8b450U, 0x3ce1d7b3bd8ba2c3U, 0xbe0e57783d714489U,
  0xbe149407bba2e166U, 0x3de4a5063e11254cU, 0x3d9d8e363eaf01e7U, 0xbe4826cd3e203c04U,
  0xbe5cd17abe613f23U, 0x3d28b15bbe30aa5cU, 0x3d83ca2fbbc997b3U, 0x3dff4b1c3e72f8d8U,
  0xbd0124d93e0e2063U, 0xbdff7a5f3df03ac1U, 0x3e8ba3fbbaa8e886U, 0x3e59472e3e646dccU,
  0xbc4e0aa43e8141acU, 0x3eaa73883e746fc7U, 0x3eaddf6e3e51159fU, 0xbdf5aac13d004cecU,
  0xbe2ca0debe8ae1c7U, 0xbe1947a0bd6f542fU, 0xbd760cff3e01e439U, 0x3d6290b63d9fd662U,
  0x3e3cf54dbe477745U, 0x3e8835573dea99b9U, 0x3d309f1cbe0f9376U, 0x3dd953c73dc37dc5U,
  0x3e8cb24f3e061dcbU, 0xbddbe3d7be5d2a79U, 0x3dc0d4863e7927d8U, 0xbd783b10bea313b0U,
  0x3e51db093e0cde9fU, 0x3e086cf53e0d5402U, 0x3e1f31503cd5f3afU, 0x3e9687c93d60417bU,
  0x3ba01cae3e05976fU, 0xbdf6ac81baa9f348U, 0xbd8dcede3e3e4de8U, 0xbe0f10d73e8a6f58U,
  0x3d5379a5be3639abU, 0xbe592fe5be91c8f4U, 0x3d357bbbbed31278U, 0xbe975710bebd4125U,
  0x3e334e533dc94584U, 0x3da76695be668d1eU, 0xbe49abcf3d103bc9U, 0x3e56d6ff3e5806cbU,
  0x3e90d8483d003df6U, 0x3d8c3ec93e4fb39dU, 0x3e5b4818be9e6f3aU, 0x3d6c63a7be5b8ff8U,
  0x3db5c5dc3d83944aU, 0xbe3e1b483ce997bcU, 0x3e32b544bd86694bU, 0xbe4e162bbe8d286dU,
  0x3d74160dbe849bd3U, 0x3e9af8543d5f5064U, 0x3e2f34103e6b721aU, 0x3d04a2163ea00c36U,
  0x3c802afebdabd5b2U, 0x3e4a174d3e431f24U, 0x3d8bc3433e01374fU, 0xbda351323bc4101fU,
  0x3d6d07b9be7b45f3U, 0xbe3cfcc1bdd7628dU, 0xbe79f2b2bc6464a4U, 0x3deba1433ce8396bU,
  0xbe42a0babd9d0a35U, 0x3e47fe463e867472U, 0x3e361eccbea84256U, 0xbe91ca10be0dfed7U,
  0x3c879437be828868U, 0x3df091d2be19dae6U, 0xbde837b13d1766c5U, 0x3e7cae9dbe803c10U,
  0x3e95ec98be5c0a12U, 0xbd8b87b13e1668c7U, 0x3e91ad39bdfdc9bdU, 0xbc376af23e6f5949U,
  0x3d559a3bbea32b57U, 0xbe4a7d723cca45b3U, 0xbeb271babd7cf47dU, 0xbe142363beb394baU,
  0x3e4d59ccbd284b80U, 0xbe98785ebe97946aU, 0xbbfac5b43e407c98U, 0x3c7922473e070d34U,
  0xbe39d1fd3e842cd7U, 0x3e787abdbe83ec85U, 0xbdaee0cabe1a199aU, 0x3e106d683e285b83U,
  0xbe3e2992bea08424U, 0x3e5fb5403ded89b9U, 0x3ddac1a6be82db00U, 0x3e122464bdcee12dU,
  0xbb8e795abe5177b3U, 0xbd886c8f3e32a858U, 0xbe9435dc3e99ae37U, 0xbd92f0b43da9eed0U,
  0xbe7ab788beb12c7dU, 0xbc9cc10ebea29abeU, 0xbee57acbbed5e401U, 0x3e0b4c3e3dfa2382U,
  0x3d79acb33c73631aU, 0x3e8c6a55be960300U, 0xbdd0cb353e081ed6U, 0x3e70ff8e3e5d5c3bU,
  0x3e0720ab3e52046fU, 0x3e89a1763d824629U, 0x3d3605bfbe83481aU, 0xbde47e1fbcfc7305U,
  0xbd9d17aabe2ccfe9U, 0xbe2d26b6beadb96bU, 0x3db17b973e8e2d9fU, 0xbea02a613e8056b2U,
  0xbe6381ea3e923938U, 0xbb8c441c3e88c997U, 0xbe682300be6c4fd6U, 0x3dabf6c43eb437f5U,
  0x3d1e8658bc16a607U, 0xbd76b49d3d5baaf6U, 0xbe6fb39dbe6a0205U, 0xbe253ffabe854ba4U,
  0xbe3778b3be5c04b2U, 0x3e0755bb3ddbeda2U, 0xbd3475bb3d9b01aaU, 0xbe09f499be1f7ea5U,
  0xbd00bfe8bdec98ccU, 0x3e44dafbbdaebcc9U, 0xbd004e263d0f54feU, 0xbdde7ecfbd9bf1eaU,
  0xbeb65072bdea3e2dU, 0xbe56cfd43e6dbef9U, 0xbe5313283e56ce6cU, 0xbda8f07b3e543d4eU,
  0x3e8f1c823e70dc44U, 0x3e8f90ba3e9b7bbbU, 0x3e11d0b73dc24c87U, 0xbe6ab116be1b19a3U,
  0xbe99466cbdca6ba1U, 0xbe3c213f3e41ee1cU, 0x3e467cd93e6cf6dfU, 0xbd9a947c3e3379b0U,
  0xbd8ba55f3bb9bf66U, 0xbe84d4bf3b0963b5U, 0x3e0b4922bdff7afdU, 0x3e9bc4a0bdece9d3U,
  0xbe2ec45bbe36c3bdU, 0xbdb8b362be832679U, 0x3e736a373e40b629U, 0x3e69d1a23e15fa50U,
  0xbe8c8895be8d6e85U, 0x3d92d0843be10fd6U, 0xbe0898d0be3e5112U, 0x3dc18b31bdb94097U,
  0xbe67db11bba7dbc6U, 0xbd9cfd27be003dfcU, 0x3e04bf32bdc88a46U, 0x3e5dba65bd3366bfU,
  0x3e4a7f00be91c709U, 0x3e4d7aaa3e06064cU, 0x3d517f453e91a92dU, 0x3de545b6bda6b98dU,
  0x3d94f925be240b91U, 0xbe89e2a6bd215451U, 0x3e8abf2e3e39c510U, 0xbe8cb3923e95ca73U,
  0x3e1dcce4be82e7c8U, 0x3e86a9fabe466865U, 0xbe71b9bf3e8bc67cU, 0xbe77e8a23e83815cU,
  0xbe5ea9313e8c47a5U, 0x3e87d6c9be2546a7U, 0xbdb20f1f3e9304f9U, 0x3e0e3b623e451fdcU,
  0x3ddc4503be33e31eU, 0x3decbc823e861d3cU, 0x3e4ef6923e7bd044U, 0x3d9f46da3e0caae5U,
  0xbe5c97913e50717cU, 0xbda67e23bcfbddc6U, 0x3e90d2a23ea33bceU, 0xbdcf6d9bbe31e966U,
  0xbe1a77c23e9884ecU, 0x3ddf06383ce70fc4U, 0x3d758ce73e34c2eaU, 0x3d284006bdeb6a5eU,
  0x3e2adf90bdc74138U, 0xbe918f973d1d6342U, 0x3e8a705b3e833e14U, 0xbe50d1513e3d49d6U,
  0x3e89f53cbdf97426U, 0xbe297cecbe785ae2U, 0xbe83e1fbbd3c8644U, 0x3e4ef752bce0e8dbU,
  0xbe4242923e130ae0U, 0x3dc67697be9f5340U, 0xbe5fdf8abe3f21f7U, 0xbcc8f61a3e73b9f1U,
  0xbdafe87c3e0e4644U, 0x3e5ad3803e7cad10U, 0x3ddbef74bd9f1c04U, 0x3df6ff693dae3a8fU,
  0x3e09393a3e4f994bU, 0x3d9edad33e8f2fe4U, 0x3e06ab6fbe3365c7U, 0x3df2e4e73db4f0c3U,
  0x3e70bc7abdde4b75U, 0xbd42177f3db01eb1U, 0x3e3300463e9e0513U, 0x3e8203f5be4665d2U,
  0x3e50e8b63e6608bbU, 0xbdeec0283ddffb22U, 0xbd8e2f0d3e1ca6b0U, 0x3e781c7fbd9569a4U,
  0x3c582714bd951373U, 0xbe65cc6a3e336a7eU, 0x3e54d124bde8cad1U, 0xbe81d3533e65dd65U,
  0x3e8cf41a3ea2f7c8U, 0xbda50831be718b4cU, 0x3e2c6b8abc549c93U, 0x3e9be2023ea13b45U,
  0x3ea18e4c3e05dd78U, 0x3e119223be6cabf3U, 0x3e3a1bdb3d139760U, 0x3e8651133de2db6fU,
  0xbe809c563dba52bbU, 0x3e703781be8a0507U, 0xbe37b6dabe766013U, 0x3de7de80be6efc87U,
  0x3e98032fbe667982U, 0xbe4367633e322a97U, 0xbd6464be3e1c139dU, 0x3e40cb1bbceb39d1U,
  0xbe28345e3e87f0f8U, 0xbe7ca6663e8d7abcU, 0xbcbe97953e404a33U, 0xbe687a71be647cd5U,
  0xbe67ac26be51d398U, 0x3d809ba23e912015U, 0x3dbeda873da85300U, 0xbe01ce503e26b887U,
  0x3e99dd713e8ceb61U, 0xbe88a8a8be5046daU, 0xbe44ad833d7ca7d0U, 0x3e600a46be6055d2U,
  0x3de722fe3d7cc58dU, 0xbe4546e13e453389U, 0x3dcee9003d2694f3U, 0x3e8f84c73dae5977U,
  0x3c4526203e21f003U, 0xbdec8ca13e935cedU, 0xbdbef5833e9b5ad8U, 0x3e87ea94bda4097fU,
  0x3dcf39a43e046926U, 0x3e924cea3e382e64U, 0x3d71d56e3e3730d1U, 0xbe52cc73be94a17bU,
  0x3da0fbb1bde3cfd2U, 0xbe3d0a5c3e216de0U, 0xbcb3965c3e6ff5c3U, 0x3d203e1c3e549289U,
  0xbe8522753e5dd4e8U, 0x3e630e563e96e6b7U, 0x3d48ef0bbea3279cU, 0xbcd56879be3fa229U,
  0xbd9d5b6dbe8b0f2fU, 0xbcdfd7b6be94d65aU, 0xbd551e103e925365U, 0x3db51ccfbe3950a0U,
  0xbe4a782a3eb0c005U, 0x3d61b164bd9ff579U, 0xbc855b813e8828dcU, 0xbea04f2c3dd90376U,
  0xbe1a3a2b3db3b898U, 0xbe57af0fbe81f53aU, 0x3dac80a13d80f963U, 0xbdb2aac7bc8f589dU,
  0x3d42a8183ea20dd6U, 0x3e3d0320be15ca05U, 0xbe59b2693e29f81bU, 0xbdb8b8efbe71680fU,
  0xbe9a66563e621f71U, 0x3da867f7be6c8b98U, 0xbdc220113e153c1bU, 0x3d67fc56bbd65a21U,
  0xbd09aa50bdb47c15U, 0x3e3d7717be8affd7U, 0x3df5b72e3ea69eb1U, 0xbde834db3e022532U,
  0x3e9ace873e666101U, 0xbe69a65bbc82189dU, 0xbe870385be12f598U, 0x3e9766c4bc906542U,
  0x3e29cc1b3db6f421U, 0xbe8ab66c3e41d3f2U, 0x3db2afd23d6eaefdU, 0xbe1f21923e158e33U,
  0xbe26ea81be1a2da6U, 0xbe4bb24b3e4c266eU, 0x3d254d613cb58e7bU, 0x3ea3aba13dfb3c28U,
  0xbe8c940a3dd79a8fU, 0xbdbc8afcbe26ef57U, 0xbe9c253f3da654beU, 0xbe1b682b3dcb8815U,
  0xbe8ba190bda409d5U, 0x3e3918bebb928db5U, 0xbe3e1caf3e7eda1bU, 0x3e0761243e3faa56U,
  0x3e6fac643e83f0ceU, 0x3de950053e928c65U, 0x3e10e2f33d55415eU, 0xbe3904d93e1de2b8U,
  0xbe40328b3e6baea3U, 0x3d9f8750be4064faU, 0x3e4bf74ebe906fffU, 0x3c09d5103e3253a8U,
  0xbe053db83e5ed1e5U, 0x3e04d9ffbe81f7b7U, 0xbbe98984bda2b36fU, 0xbd5dc3a6be3bb783U,
  0x3ea259d43e9fd5beU, 0x3e87a103be65b231U, 0x3e4185e83deae9e9U, 0x3e9ae81abe7bcbc4U,
  0xbc94b05a3c48371dU, 0xbe81990d3cff182dU, 0xbe4606e9be51cf54U, 0x3c8771a43e9074dfU,
  0x3e5f91263dedaea6U, 0xbe0019e73c8b1327U, 0xbdd477543e1031a8U, 0xbe74ab39be15e177U,
  0xbe8151bbbb8f736cU, 0x3b40b0c23e526722U, 0xbd5917063d4f8697U, 0xbc8e7fe73d5a2f87U,
  0xbd20c6cf3dd5430fU, 0xbe872955be828445U, 0x3e434b75be5213d2U, 0xbe440fe7be2bf4f0U,
  0x3e849631be733e5dU, 0x3e9740103d342bc5U, 0xbe2b7a09be8527b6U, 0x3c541269bdb4570aU,
  0x3dae5c573e05b356U, 0xbe1fa410bde02c1fU, 0x3e8eaec4be2981b2U, 0x3e24ca67be814be3U,
  0x3e9ed193bc070fb3U, 0x3e92d9063db767e5U, 0x3e9e6aeb3e837b7dU, 0xbbd94ababe4243c7U,
  0x3e46b5babdee3237U, 0x3daa8d2b3e19b5f0U, 0xbe80e5e9bc75e65eU, 0xbccff52e3e9e6875U,
  0xbe563b833ea44ee8U, 0xbdf9abaeb8eddd51U, 0xbd2276193dc04e77U, 0xbe23be483e724e7dU,
  0xbe7ef9bbbdb68168U, 0xbe4cca6f3e2ea650U, 0x3e90bd2dbd8f9a01U, 0xbe2f83473e076f0aU,
  0xbe3d436f3e027801U, 0x3c97b3b1be946878U, 0xbe97749c3e4d197cU, 0xbdd30c9a3e1d72ecU,
  0xbc8ea06ebe69db81U, 0x3cd316b33e2e6182U, 0x3e9eeadcbe4f1cc2U, 0xbdfb4f33be645ae9U,
  0x3e895cadbdaf6ee4U, 0x3e2dc0913d3730afU, 0x3e2451183e735fbfU, 0x3c9469bb3d91550dU,
  0xbe3bcd8abe463fceU, 0xbcf948b3bda7d9ceU, 0x3d516193be48ec3fU, 0x3dadc13d3cd52976U,
  0x3dd165f0be401192U, 0xbda275a1be8d61bdU, 0xbe46cf773e3c0fdcU, 0x3e8e4ebabde1920eU,
  0xbe8f9efebe037acbU, 0x3e3ad436be821ef8U, 0x3d12990a3e0fff8cU, 0xbe3b49c6be8782c9U,
  0x3dda24f63df18647U, 0x3e12089cbe907fb8U, 0xbe5d34b5bdf02270U, 0x3d5619f23d8edb48U,
  0xbdf5daa33cb99605U, 0x3daab2093e19aa45U, 0x3da1c66abc74f38fU, 0xbe413215bd48b714U,
  0xbc5196873e4dd836U, 0xbd9261d5bdc62ee7U, 0xbd8788793dd8bb9fU, 0x3e7a01263d4254aaU,
  0x3e40f268bcfcbcedU, 0xbe62f08b3e134561U, 0x3e67768dbdfa42a8U, 0x3d1dacc1bdb37ef8U,
  0x3e05bb5a3dde345fU, 0xbd85cfd53e46a9aeU, 0x3dc401ec3e83217cU, 0x3dc5c17b3dabb2acU,
  0xbe95195a3d18da2eU, 0xbcd80bb93e8d9405U, 0x3dc9a15f3e0f14f5U, 0xbd607fbb3c940525U,
  0xbda952e63ce8ad0aU, 0xbdf3cef93e8f1b6aU, 0x3df3206ebe3d632bU, 0xbd435d993dd94394U,
  0x3d67b6d3bc8f8a68U, 0x3dcb2cef3da87893U, 0xbd2698f83e35ae37U, 0xbc8eda113c9b614fU,
  0x3e60e05bbd84e713U, 0xbd02293b3e240b33U, 0xbe8eca04be9d7ee6U, 0x3e451ad33e871142U,
  0xbe3514c73dda0de7U, 0xbcf9da9d3e8e5781U, 0xbe8d91883d301182U, 0x3e91547b3cb00eb5U,
  0x3e2a6540bdd17a3cU, 0x3dc76e4cbe5acb55U, 0x3ce2e9ee3dcf03ffU, 0xbe15fd64be8a25fdU,
  0xbdb20283be3e8cb8U, 0x3d5cdceebe3e3a3bU, 0x3dcf80e2bd0f406eU, 0xbdf5af773e1f8504U,
  0x3e864af3bd0675e8U, 0x3e6ac9e5be02138aU, 0x3dfe32ae3e79734eU, 0xbe513c913e8089f1U,
  0x3d9f6187be9a8f16U, 0xbe5bbc433dd5870cU, 0x3e9cbb78be935713U, 0xbe312b5e3dd1cd7fU,
  0xbe68b9d53d8ca684U, 0xbe065e75bddab3f2U, 0xbe797ae6be1193b5U, 0x3e6b760ebe48b026U,
  0xbe3e31363db7abefU, 0xbe5e6c1fbcc4a879U, 0x3e153d4e3e377ce7U, 0xbe8da4fd3e7893f0U,
  0xbe30d294be780f33U, 0xbc8a7fa5be12847dU, 0x3e733a03be978ac8U, 0x3e45fc1cbe0a5eb4U,
  0x3d6ac1d63c642760U, 0x3c5330fabe8130beU, 0x3e847713be97ac8dU, 0x3de4f0fbbd0ddc7eU,
  0xbea80804be11c8aeU, 0xbe9cc3ebbe874a54U, 0x398cec9e3cce7599U, 0xbe5d5a2dbd44e889U,
  0xbd790c4b3e0fdcd0U, 0x3db0cd973d95d37dU, 0xbe784b283e90d7cdU, 0x3d97fc203ceb79d3U,
  0xbe8b7c38bea14ab4U, 0x3d050d25bd145ce0U, 0xbe976b68be7eef3eU, 0xbe786cf7be8e76e0U,
  0xbe00679f3ddc2b5bU, 0x3dfa1f54be81a645U, 0xbe8c6524be822e93U, 0x3e1f4fc8bdb2b822U,
  0x3e874e1dbd851b51U, 0xbd1f6e933e81920eU, 0x3dcc36573e591fcbU, 0x3e7ddf723e562403U,
  0x3e27a8b73c4d2ddfU, 0x3d7eb933be2b8e92U, 0x3e83fdfabe066c64U, 0x3dd289113e3b6760U,
  0xbe8dc2fa3e5db881U, 0x3e841780be8c6c08U, 0xbd835879be820873U, 0xbc97bb843e9164ebU,
  0xbe3d3200be4a0178U, 0xbd9de8c13e79ebcfU, 0x3e1b97483e7b6ebeU, 0x3db9c053be95ecdbU,
  0xbe3c5096be3f76aaU, 0xbe8471c8be7aeba8U, 0xbe70c3e13dcf54d7U, 0xbe893b4fbcf586d2U,
  0x3e6be33e3e0244a9U, 0xbde7c00c3d32dd5fU, 0xbea0a341be86576dU, 0x3e134710be90861aU,
  0x3e7117afbe85813eU, 0x3d100356be7185a4U, 0x3e334295be811b21U, 0x3da0834abe63c280U,
  0x3e9291183e0a485bU, 0x3e6bf0a7be9f83a7U, 0x3e597d7cbe5dee80U, 0xbd32b8b5be29dfbeU,
  0xbdd425e4be158095U, 0xbd240d34bc3d0f40U, 0xbdda58e23e1a4d5bU, 0xbdb3f71a3e559a57U,
  0x3e8f9839be25543dU, 0xbdeea8b63e23f22eU, 0x3d3471b9be497f52U, 0xbe928b3a3e2423bbU,
  0x3e1552783e845853U, 0x3dc2181c3e2c57afU, 0x3e17e27cbd08db82U, 0x3e591cccbe31634bU,
  0xbdaa70fcbe4fdce4U, 0x3e09a5eb3e5c7221U, 0xbe4f8f2fbe1f5f0cU, 0xbd7dd53dbe01fcb9U,
  0xbe41b3d4bcbda96dU, 0xbe41272ebd572dbcU, 0x3dfd8e633da42d8dU, 0xbe20a776bdd515d6U,
  0x3d8e97b9be8583caU, 0xbead417abd96fde9U, 0x3e8886cfbe41b598U, 0xbe8b66613c47c412U,
  0x3e89602dbe444fe2U, 0x3b661ec0bea905eaU, 0x3e206814be9759f7U, 0xbe93406fbe8dc286U,
  0x3caad8a93e84ab07U, 0x3d908efb3e872c0eU, 0x3e5a0ffbbe3139fdU, 0xbe2e9788bafb8717U,
  0x3e1d0f873d5d54e5U, 0xbdba4c753dd2b195U, 0x3e472c123de19f20U, 0xbda0bee3be86ea61U,
  0xbc5e1a323e27c40eU, 0xbe4af03c3cf067a2U, 0xbe276c05bdb43da1U, 0xbea47003be0270d9U,
  0x3e80b5bcbea2e36cU, 0x3e6c61583e79a97fU, 0xbd83161bbe19ea23U, 0x3e6ec77e3d6b3554U,
  0x3e6a230ebde665a1U, 0xbe0a796bbd86d84fU, 0xbde48f19be4ffeddU, 0xbd03e128be0f7f10U,
  0xbdb97cd7be36b6d1U, 0x3cc272d13dcb5614U, 0x3e7109ee3ddfaa2aU, 0x3e7295993e8bd7bcU,
  0xbdaca84b3d9c66dbU, 0xbe38dc623bbab0f5U, 0xbe66e3c93e65f08fU, 0xbe80cfedbe30aec0U,
  0x3e247cacbe362b91U, 0xbe6ef322bdaa9417U, 0xbd52c1c0bb901da5U, 0x3da8b169bd3f409bU,
  0x3d9478d0be97e3b5U, 0x3de32b053e8b4dfdU, 0x3e2123033e51e687U, 0xbd18bcccbe11b348U,
  0x3e9937a43d55d4e5U, 0xbe8e1721bdc2177aU, 0xbe6c00bcbcd51a9aU, 0xbdcf68313e0b0fcdU,
  0x3e10e24abe10d277U, 0xbcb29d72be46f588U, 0x3e773eb73e80f7e5U, 0x3e8b6656bde7be8bU,
  0xbe3e80cf3e75a7b5U, 0xbdd637d0bd07ca91U, 0x3e0497273e60fd55U, 0xbeba99b23d7c7738U,
  0xbe2efa05bc9034adU, 0x3dd744ebbe987cb9U, 0xbe8981fabe4e996bU, 0x3e1c47573e640b6eU,
  0x3de951293d41ccc9U, 0x3e08d0083df2fbfcU, 0xbe816d5cbe382eadU, 0xbdc8f7cfbeae1919U,
  0x3e3d4eadbe2b6018U, 0xbeaaad43be882f65U, 0xbe1b5cd1bdd80018U, 0xbea574d1bea535b4U,
  0x3e5d244fbe804a62U, 0x3d7f8e4ebd83937fU, 0x3e478faebd69236eU, 0xbe833ff03e2704dcU,
  0xbeadcc6fbdd50b14U, 0x3e273bb03c899804U, 0xbe4507c83e93e908U, 0x3de07ce53caef7b4U,
  0x3e368859be266792U, 0xbec71ba13e02a277U, 0x3dd51b65be1cca03U, 0x3d9d710bbdea8f19U,
  0xbe75b52d3dcc6015U, 0x3d920f26be82c3ddU, 0xbea121c3be119e29U, 0xbd209275be5bb598U,
  0x3cc41e6d3e9f7361U, 0x3cdbe5f03cc2c166U, 0x3cd3c7febe8b9e9cU, 0xbe0bba8fbeb97048U,
  0x3cdb0a90be8a8d4aU, 0xbdfe2f99bd601b58U, 0x3d0f38fcbd047810U, 0xbe460c383e27702fU,
  0xbea247e03e7c8c44U, 0xbd6109063ddbde72U, 0xbe90724f3e9b64aeU, 0x3b480c4fbeb7fa4fU,
  0x3e67d0c8be9887c2U, 0xbed0abb5bea5098dU, 0xbc93ca763dd93bbfU, 0x3bf39f9e3e2131eaU,
  0x3e92b1ca3e0e2d0cU, 0x3e906d133e903d05U, 0xbddd29f83db6e06fU, 0x3eb78600bd16ee02U,
  0xbd19aae73df9a7faU, 0xbe9ef1943dbb2ab0U, 0xbea9d2dcbdf9f97cU, 0x3d8b5f083ddb9158U,
  0x3d2528c23e18cb5aU, 0x3df38789be8ea3abU, 0x3e8d13e73e5d3c45U, 0x3ee65e863e9c251eU,
  0x3dfa0b503eb3cbc6U, 0xbe2958c4bd868c80U, 0x3d4b67623e0711f8U, 0x3de3dd19bc8fd6afU,
  0x3d8cac75be8e1faaU, 0x3e832faa3cc963ecU, 0x3d9db84d3e947fbfU, 0x3ec14d19bdd8931bU,
  0x3dae21ab3ea4b3dfU, 0x3e23b06c3eaa62d8U, 0x3e7438e8be2d530fU, 0xbd1753d0bde3d108U,
  0xbd312eab3d4b6e7cU, 0x3d6ab1f0be36c681U, 0x3e290a6bbd5ebbd1U, 0xbd6934f53de57a7eU,
  0x3dd5e411be10dccbU, 0x3e2016be3d7fd7a2U, 0xbe78dc5f3e05b189U, 0x3eeaf07fbe5d8be6U,
  0xbe811bff3eaf3f95U, 0x3bebdecdbdb33124U, 0xbe948ae3be9ebf64U, 0xbe92cae43e84d3c4U,
  0xbb6cd22f3c7023d1U, 0xbe3602a6be7f70b1U, 0x3e96f920be022089U, 0xbdd74fc53e1b5bfaU,
  0x3e1ac3e53e7e6492U, 0x3e0d71703dc5e639U, 0x3ddddc2fbdd0a9e6U, 0x3d9db51dbd2dd32cU,
  0xbe30a5983d511a83U, 0x3e18ddebbe00a1dfU, 0xbe43a775bddb3c2fU, 0x3e1ad8373e9ca672U,
  0x3e8466a33e37a624U, 0xbdccffe83ebc0aacU, 0x3d8918243e35977fU, 0x3e0b5ccdbe010d5cU,
  0xbe80f5d1be50885cU, 0xbd1a64f8beb0ac50U, 0x3d99d96ebe1b7415U, 0xbdcdf744be608583U,
  0x3e17f5eb3e6afb70U, 0x3c17719dbdc71ec3U, 0x3df1f45d3e4dffabU, 0xbdc188813eab3d50U,
  0x3e0e38bbbe3cf477U, 0xbc670cdb3e27a656U, 0xbe8cf455bdd87446U, 0xbe4538a8bc1f1c83U,
  0xbe8c79a8bdc78c6eU, 0xbce375a93d1659b7U, 0xbd5c27563cc36590U, 0x3e9a9427bc8c36fdU,
  0xbd8e9c08bd012c35U, 0x3e98b803be04a093U, 0x3ea501e0bd77e4cfU, 0xbe0043993ece6522U,
  0xbcca7f26be533f6cU, 0xbe30d76dbcb127f6U, 0x3e57b5943ae2b873U, 0x3e8e8b00bd9dc6d9U,
  0x3e1082a3bd90c7ceU, 0x3e6ea55cbe720961U, 0xbdfe2e1bbd8f0e55U, 0x3e81c5b5bcc88416U,
  0x3e839e753e914605U, 0xbd1203a63eb36247U, 0xbddc572bbe8630c1U, 0xbe5941bf3dd1d237U,
  0xbeba41503e518407U, 0x3deb1a7cbe4ceb2cU, 0x3e646ae9bd9c35b2U, 0x3d2816ea3e8d9ac7U,
  0x3c635c80be422b37U, 0x3e21626c3e85b366U, 0xbc968ae53ecca448U, 0xbdbd5d29be86017cU,
  0xbdbcf6a13cd54c3fU, 0xbe813c703c2d07e2U, 0xbe3a80dabdfced37U, 0xbea18fe7bdf04a6bU,
  0x3c2d4c423cb0a082U, 0xbd583800be57c172U, 0xbd78436c3e0aad8eU, 0xbe8964e63e4fd6f1U,
  0x3e8c68693e382798U, 0xbe11f0fb3db52ec6U, 0x3d6b13ffbda1b33aU, 0x3ea57e5ebd644583U,
  0xbdccbd3dbd9870e9U, 0x3e58b14a3deaa89fU, 0xbcf439173e513484U, 0xbe93fc65bec434d1U,
  0xbe51ba54bdcfe1e4U, 0xbdfee6463d3fc2c3U, 0x3cc7f1083e034822U, 0xbc768632be75bb4dU,
  0xbec5ddd4bd2cf7abU, 0xbc0b2f393e2baee3U, 0xbe5252603e6d4f4eU, 0x3d84a2ca3dd3c5a3U,
  0x3c8e1fcfbc78120cU, 0xbd42eb3bbe4688edU, 0x3e49a1903e47d84cU, 0x3d1d67853db66f1bU,
  0x3cbb83aabd9f6c21U, 0xbe44e9cbbcd30705U, 0xbe92b1e4be8c6503U, 0x3c506359be921c0fU,
  0x3de819c43e55194aU, 0xbeb8ab213dcfed8dU, 0x3d8eb714bdce92ddU, 0xbdb964d13e4f5322U,
  0xbeb5c546bee3b8f5U, 0xbeb014edbec76fbcU, 0xbe9a19253e6e6987U, 0xbd629273be50babcU,
  0xbe972cfbbe776064U, 0xbebd650cbe9d26f8U, 0x3e708ae7bea67f0cU, 0xbea08f613e1e801bU,
  0xbe7396ccbe007c1aU, 0xbe870d78becf0ca6U, 0x3c29b0553e571f4fU, 0xbd6c2f7dbea0d42dU,
  0xbeb48121be840466U, 0xbca9ef233ca7e0e2U, 0xbecb473bbc93f39eU, 0x3e12afa13d43534bU,
  0x3e7f80803ea3897fU, 0x3e3433acbe5ed2f4U, 0x3cffd18b3e3a4080U, 0xbe169ad7becddd72U,
  0x3d854d1c3e25c2edU, 0x3e54720ebe37d361U, 0xbe5cd19ebe558bfbU, 0xbea70fe0bebadbd2U,
  0x3d0bf52dbe8bdad8U, 0x3e20aeb73ddc7ba3U, 0xbdc702ee3e127073U, 0x3b1a3f24be17ba99U,
  0x3e9dfa86be1b7654U, 0xbe157dbdbe8cb21dU, 0x3e489b71be8eb8c8U, 0x3d563805bd1e420cU,
  0x3e3250fe3e626a72U, 0xbe343c2abe462d28U, 0x3e3f88f3bd84df4cU, 0xbe39c5a4be4197e5U,
  0xbe9ef092be9785fcU, 0x3c745ce4be2fa30bU, 0xbdb451bbbccead92U, 0x3e6bc1d33dfdf524U,
  0x3e9bb985bc866fd5U, 0xbdd0141fbb4eaf71U, 0xbdb44bf9be8c06bfU, 0x3e91be113d8732fdU,
  0xbe81294cbe74e7f8U, 0xbd18628bbd8dcf7bU, 0xbe3fed633e57d14fU, 0x3d602c4b3e6ed437U,
  0xbe8885d83e4770fbU, 0x3e69ab09be947c30U, 0xbe86293a3db8daa5U, 0x3e5eb56d3dec09cfU,
  0x3e231747bd1f09bfU, 0x3df884eabd51dd31U, 0xbe3e7bc6be32734eU, 0xbd95a41f3de35e49U,
  0xbe2c75a7bdfbe8b0U, 0x3c8c8c17be428b89U, 0x3da499e8be00901dU, 0xbc16dab63d78889fU,
  0xbda351e13e8fb14aU, 0x3e16fb3f3dc99e21U, 0x3e2e580fbdba518aU, 0xbd64da993d7ee8abU,
  0x3ea0f986bbb42a35U, 0x3e8773e43e903580U, 0x3cbc0094bd85a438U, 0xbe8a94a03d85264eU,
  0xbe3e3884bd71c2dfU, 0x3ea1031a3d5e2abcU, 0x3e89e242bb9e57f4U, 0xbc79ffc03e8b02b7U,
  0xbe8d44c3be506873U, 0x3dd02ccb3e35d73dU, 0x3e8fe89d3d94fa43U, 0x3e1f71fc3dc6b08eU,
  0x3dfd5df73e865198U, 0xbe9d73703daaf0c1U, 0x3dc39ec33dd63c77U, 0x3dc4f4f03d335a99U,
  0x3ddb20d1be55051bU, 0xbd9175ad3e96f21bU, 0x3e9ef9f93e03bc2fU, 0x3e8179e0be19e0eaU,
  0x3cf48ee53d63c379U, 0x3df3aa31bdf69140U, 0x3e873af23e2590bfU, 0xbd1cf8a73e539956U,
  0xbe9156103c847408U, 0x3e41b3333ceb376eU, 0xbdeabb7f3c70401eU, 0xbdd20a7ebdac3024U,
  0x3e54f7753e0335e4U, 0x3c9ea28d3e9cc94fU, 0xbe2342763c723da4U, 0x3e9928623dc9cd98U,
  0xbe421628be85020aU, 0xbd9e5ad1be34c820U, 0x3e3e7b9d3d365c1aU, 0xbe3522ccbe9b18c9U,
  0x3d919f56bda93a16U, 0xbe96ba473e99e1f9U, 0x3ca43c3d3e8fafdfU, 0x3e306a8d3e9893b6U,
  0x3dd0aa45be81260bU, 0xbe213e233e9c7e1dU, 0x3c3e4b21bcaff973U, 0xbe38cbcdbdbd3f9bU,
  0xbe4af92cbe9176ebU, 0xbd83e77a3df8f0d3U, 0x3ea172d13e8a92c4U, 0xbd7760913da06e6bU,
  0xbdf071f63d4a6a84U, 0xbe11cbf03dddbd95U, 0x3e9ab093bd327a32U, 0xbe5eb1e2be5e9135U,
  0x3d37d0543e7781fbU, 0xbabca2533d87cb6fU, 0x3d4edaecbe4b00dcU, 0x3e1033a53e9dc899U,
  0xbe8d9d08be97b653U, 0xbe5539a1bdc1ca5aU, 0xbd3c20643dd99ee6U, 0x3dd6987dbdbe0f1bU,
  0xbe6ee5263e0ce736U, 0x3db09dccbcaad938U, 0xbd995405be8a3feeU, 0xbe2e9623be6daeb4U,
  0xbe8059aebe8f6abcU, 0x3e65e5ca3e9eae97U, 0xbd9c1fecbce37eb8U, 0xbe995ee9bdf0808eU,
